{
  "version": "1.0",
  "truncation": null,
  "padding": null,
  "added_tokens": [
    {
      "id": 0,
      "content": "[UNK]",
      "single_word": false,
      "lstrip": false,
      "rstrip": false,
      "normalized": false,
      "special": true
    },
    {
      "id": 1,
      "content": "[PAD]",
      "single_word": false,
      "lstrip": false,
      "rstrip": false,
      "normalized": false,
      "special": true
    },
    {
      "id": 2,
      "content": "[BOS]",
      "single_word": false,
      "lstrip": false,
      "rstrip": false,
      "normalized": false,
      "special": true
    },
    {
      "id": 3,
      "content": "[EOS]",
      "single_word": false,
      "lstrip": false,
      "rstrip": false,
      "normalized": false,
      "special": true
    }
  ],
  "normalizer": null,
  "pre_tokenizer": {
    "type": "ByteLevel",
    "add_prefix_space": false,
    "trim_offsets": true,
    "use_regex": true
  },
  "post_processor": null,
  "decoder": null,
  "model": {
    "type": "BPE",
    "dropout": null,
    "unk_token": "[UNK]",
    "continuing_subword_prefix": null,
    "end_of_word_suffix": null,
    "fuse_unk": false,
    "byte_fallback": false,
    "ignore_merges": false,
    "vocab": {
      "[UNK]": 0,
      "[PAD]": 1,
      "[BOS]": 2,
      "[EOS]": 3,
      "!": 4,
      "$": 5,
      "&": 6,
      "'": 7,
      "(": 8,
      ")": 9,
      "*": 10,
      "+": 11,
      ",": 12,
      "-": 13,
      ".": 14,
      "0": 15,
      "1": 16,
      "2": 17,
      "3": 18,
      "4": 19,
      "5": 20,
      "6": 21,
      "7": 22,
      "8": 23,
      "9": 24,
      ":": 25,
      ";": 26,
      "=": 27,
      "?": 28,
      "A": 29,
      "B": 30,
      "C": 31,
      "D": 32,
      "E": 33,
      "F": 34,
      "G": 35,
      "H": 36,
      "I": 37,
      "J": 38,
      "K": 39,
      "L": 40,
      "M": 41,
      "N": 42,
      "O": 43,
      "P": 44,
      "Q": 45,
      "R": 46,
      "S": 47,
      "T": 48,
      "U": 49,
      "V": 50,
      "W": 51,
      "X": 52,
      "Y": 53,
      "Z": 54,
      "_": 55,
      "a": 56,
      "b": 57,
      "c": 58,
      "d": 59,
      "e": 60,
      "f": 61,
      "g": 62,
      "h": 63,
      "i": 64,
      "j": 65,
      "k": 66,
      "l": 67,
      "m": 68,
      "n": 69,
      "o": 70,
      "p": 71,
      "q": 72,
      "r": 73,
      "s": 74,
      "t": 75,
      "u": 76,
      "v": 77,
      "w": 78,
      "x": 79,
      "y": 80,
      "z": 81,
      "¡": 82,
      "£": 83,
      "§": 84,
      "¨": 85,
      "©": 86,
      "ª": 87,
      "«": 88,
      "²": 89,
      "³": 90,
      "´": 91,
      "µ": 92,
      "º": 93,
      "»": 94,
      "Â": 95,
      "Ã": 96,
      "Ċ": 97,
      "č": 98,
      "Ġ": 99,
      "Ģ": 100,
      "ģ": 101,
      "Ī": 102,
      "ī": 103,
      "ĵ": 104,
      "ł": 105,
      "Ń": 106,
      "Ġt": 107,
      "Ġa": 108,
      "he": 109,
      "Ġs": 110,
      "Ġm": 111,
      "ou": 112,
      "in": 113,
      "re": 114,
      "Ġd": 115,
      "ha": 116,
      "Ġw": 117,
      "nd": 118,
      "er": 119,
      "or": 120,
      "is": 121,
      "Ġc": 122,
      "Ġb": 123,
      "čĊ": 124,
      "Ġthe": 125,
      "es": 126,
      "Ġp": 127,
      "Ġo": 128,
      "Ġf": 129,
      "Ġn": 130,
      "ar": 131,
      "en": 132,
      "ll": 133,
      "it": 134,
      "Ġl": 135,
      "as": 136,
      "on": 137,
      "Ġe": 138,
      "om": 139,
      "os": 140,
      "Ġy": 141,
      "Ġh": 142,
      "Ġth": 143,
      "an": 144,
      "Ġto": 145,
      "ve": 146,
      "qu": 147,
      "Ġyou": 148,
      "hat": 149,
      "ĠI": 150,
      "ot": 151,
      "Ġhe": 152,
      "Ġg": 153,
      "at": 154,
      "Ġde": 155,
      "Ġand": 156,
      "ing": 157,
      "ow": 158,
      "Ġof": 159,
      "ra": 160,
      "se": 161,
      "im": 162,
      "Ġqu": 163,
      "Ġbe": 164,
      "Ġme": 165,
      "ad": 166,
      "Ã£": 167,
      "ce": 168,
      "ir": 169,
      "Ġin": 170,
      "Ġu": 171,
      "ent": 172,
      "Ġha": 173,
      "le": 174,
      "Ġmy": 175,
      "Ã£o": 176,
      "st": 177,
      "Ġque": 178,
      "ed": 179,
      "al": 180,
      "et": 181,
      "ut": 182,
      "id": 183,
      "am": 184,
      "ld": 185,
      "ic": 186,
      "ay": 187,
      "ĠĠ": 188,
      "Ġv": 189,
      "Ġse": 190,
      "ith": 191,
      "Ġis": 192,
      "Ġnot": 193,
      "'s": 194,
      "Ġcom": 195,
      "Ġre": 196,
      "ig": 197,
      "Ġfor": 198,
      "Ġthat": 199,
      "And": 200,
      "ia": 201,
      "od": 202,
      "ke": 203,
      "est": 204,
      "Ġas": 205,
      "Ġwe": 206,
      "our": 207,
      "ill": 208,
      "ro": 209,
      "her": 210,
      "em": 211,
      "Ġwith": 212,
      "Ġit": 213,
      "Ġyour": 214,
      "ur": 215,
      "Ġdo": 216,
      "Ġthou": 217,
      "and": 218,
      "Ġst": 219,
      "ord": 220,
      "'d": 221,
      "ch": 222,
      "Ġk": 223,
      "Ġhis": 224,
      "av": 225,
      "ter": 226,
      "EN": 227,
      "us": 228,
      "The": 229,
      "Ġso": 230,
      "Ġhave": 231,
      "Ġno": 232,
      "IN": 233,
      "Ã§": 234,
      "ri": 235,
      "ly": 236,
      "ĠC": 237,
      "Ġhim": 238,
      "--": 239,
      "Ġli": 240,
      "ess": 241,
      "Ġthis": 242,
      "IO": 243,
      "ore": 244,
      "ht": 245,
      "Ġon": 246,
      "ĠnÃ£o": 247,
      "AR": 248,
      "ant": 249,
      "ĠE": 250,
      "il": 251,
      "Ã©": 252,
      "pe": 253,
      "Ġcon": 254,
      "ould": 255,
      "ood": 256,
      "ome": 257,
      "ain": 258,
      "ell": 259,
      "ver": 260,
      "Ġan": 261,
      "Ġum": 262,
      "ol": 263,
      "Ġou": 264,
      "ul": 265,
      "Ġsu": 266,
      "me": 267,
      "Ġthy": 268,
      "Ġsha": 269,
      "Ġma": 270,
      "ru": 271,
      "Ġwill": 272,
      "Ġlo": 273,
      "if": 274,
      "Ã¡": 275,
      "ge": 276,
      "ost": 277,
      "ĠĠĠĠ": 278,
      "gu": 279,
      "io": 280,
      "Ġwh": 281,
      "Ġbut": 282,
      "Ġpar": 283,
      "Ġall": 284,
      "US": 285,
      "ight": 286,
      "Ġda": 287,
      "ap": 288,
      "Th": 289,
      "nt": 290,
      "ous": 291,
      "To": 292,
      "Ġmu": 293,
      "Ġfa": 294,
      "Wh": 295,
      "ion": 296,
      "th": 297,
      "Ġher": 298,
      "res": 299,
      "rom": 300,
      "ard": 301,
      "Ġne": 302,
      "han": 303,
      "ĠA": 304,
      "Ġat": 305,
      "Ġam": 306,
      "Ġmin": 307,
      "ct": 308,
      "Ġour": 309,
      "Ġthee": 310,
      "ĠM": 311,
      "Ġshall": 312,
      "Ġby": 313,
      "el": 314,
      "ĠR": 315,
      "ck": 316,
      "ab": 317,
      "UC": 318,
      "..": 319,
      "Ġare": 320,
      "ING": 321,
      "Ġsh": 322,
      "ĠS": 323,
      "Ġpr": 324,
      "Ġkn": 325,
      "ear": 326,
      "Ġj": 327,
      "ast": 328,
      "are": 329,
      "That": 330,
      "end": 331,
      "ich": 332,
      "Ġal": 333,
      "ER": 334,
      "OR": 335,
      "ĠO": 336,
      "Ġwhat": 337,
      "Ġdis": 338,
      "de": 339,
      "Ġr": 340,
      "ava": 341,
      "Ġman": 342,
      "ade": 343,
      "ĠÃ©": 344,
      "Ġout": 345,
      "sel": 346,
      "AN": 347,
      "ET": 348,
      "Ġ'": 349,
      "ES": 350,
      "ive": 351,
      "Ġup": 352,
      "iz": 353,
      "ath": 354,
      "ind": 355,
      "But": 356,
      "ak": 357,
      "Ġmas": 358,
      "Ġgood": 359,
      "ort": 360,
      "fe": 361,
      "um": 362,
      "ĠG": 363,
      "row": 364,
      "ĠP": 365,
      "era": 366,
      "Ġlord": 367,
      "ie": 368,
      "Ġos": 369,
      "one": 370,
      "'ll": 371,
      "Ġem": 372,
      "What": 373,
      "Ġwhe": 374,
      "ĠL": 375,
      "KING": 376,
      "ond": 377,
      "gh": 378,
      "ĠD": 379,
      "to": 380,
      "Ġsa": 381,
      "Ġle": 382,
      "ry": 383,
      "ho": 384,
      "Ġhear": 385,
      "Ġar": 386,
      "Ġest": 387,
      "Ġbl": 388,
      "Ġfrom": 389,
      "Ġbr": 390,
      "ĠB": 391,
      "ĠH": 392,
      "Ġshe": 393,
      "ĠV": 394,
      "ente": 395,
      "For": 396,
      "Ġag": 397,
      "Ġmore": 398,
      "IC": 399,
      "Ġac": 400,
      "Ã§Ã£o": 401,
      "Ġdes": 402,
      "Ġcan": 403,
      "ci": 404,
      "Ġwas": 405,
      "Ġthem": 406,
      "oth": 407,
      "Ġfo": 408,
      "other": 409,
      "Ġsir": 410,
      "ose": 411,
      "Ġpara": 412,
      "ud": 413,
      "Ġgra": 414,
      "Ġper": 415,
      "ep": 416,
      "Ġnow": 417,
      "ando": 418,
      "Ġhat": 419,
      "Ġor": 420,
      "Ġif": 421,
      "LO": 422,
      "Ġun": 423,
      "Ġthere": 424,
      "Ġpro": 425,
      "Ġwould": 426,
      "Ġknow": 427,
      "ate": 428,
      "un": 429,
      "IUS": 430,
      "all": 431,
      "self": 432,
      "ARD": 433,
      "ather": 434,
      "Ġsay": 435,
      "Ġus": 436,
      "ei": 437,
      "Ġhere": 438,
      "Ġlove": 439,
      "ok": 440,
      "Ġsw": 441,
      "Ġtheir": 442,
      "pp": 443,
      "Ġen": 444,
      "Ġex": 445,
      "iv": 446,
      "Ġes": 447,
      "Ġthan": 448,
      "Ġlet": 449,
      "Ġthen": 450,
      "Ġell": 451,
      "Ġking": 452,
      "Ġeu": 453,
      "Ġera": 454,
      "Ġgo": 455,
      "ure": 456,
      "Ġthey": 457,
      "ado": 458,
      "ave": 459,
      "ake": 460,
      "My": 461,
      "Ġcome": 462,
      "ong": 463,
      "He": 464,
      "ist": 465,
      "ble": 466,
      "ĠN": 467,
      "Ã³": 468,
      "apit": 469,
      "Ġser": 470,
      "Ġpor": 471,
      "As": 472,
      "Ġspe": 473,
      "LI": 474,
      "Ġwor": 475,
      "ers": 476,
      "ime": 477,
      "oss": 478,
      "Ġent": 479,
      "ink": 480,
      "ame": 481,
      "fore": 482,
      "Ġmay": 483,
      "Whe": 484,
      "po": 485,
      "Ġpe": 486,
      "Ġwell": 487,
      "KE": 488,
      "Ġve": 489,
      "reat": 490,
      "Ġone": 491,
      "Ġhath": 492,
      "ĠJ": 493,
      "irst": 494,
      "ag": 495,
      "Ġuma": 496,
      "ĠT": 497,
      "Ġho": 498,
      "Ġcont": 499,
      "You": 500,
      "Ġmake": 501,
      "co": 502,
      "ust": 503,
      "Ġab": 504,
      "Ġmust": 505,
      "ound": 506,
      "la": 507,
      "ec": 508,
      "Ãº": 509,
      "per": 510,
      "ish": 511,
      "Ġver": 512,
      "Ġwere": 513,
      "apitÃº": 514,
      "Ġsee": 515,
      "ide": 516,
      "Ġlike": 517,
      "ens": 518,
      "TIO": 519,
      "ity": 520,
      "Ġshould": 521,
      "ire": 522,
      "ora": 523,
      "ine": 524,
      "Ġna": 525,
      "RO": 526,
      "ice": 527,
      "Ġmar": 528,
      "har": 529,
      "ng": 530,
      "Ġfather": 531,
      "man": 532,
      "orn": 533,
      "ass": 534,
      "Ġhad": 535,
      "ick": 536,
      "Ġdid": 537,
      "inha": 538,
      "que": 539,
      "...": 540,
      "Ġupon": 541,
      "ĠÃ¡": 542,
      "ran": 543,
      "oc": 544,
      "ence": 545,
      "ma": 546,
      "Ġpre": 547,
      "ON": 548,
      "Ġch": 549,
      "Ġminha": 550,
      "ias": 551,
      "ves": 552,
      "ada": 553,
      "ign": 554,
      "Ġmais": 555,
      "Ġson": 556,
      "ght": 557,
      "Ġsp": 558,
      "ward": 559,
      "ito": 560,
      "Ġao": 561,
      "Ġdeath": 562,
      "Ã§a": 563,
      "Ġfe": 564,
      "Ġpo": 565,
      "own": 566,
      "ĠĠĠĠĠĠĠĠ": 567,
      "II": 568,
      "Ġcas": 569,
      "Ġcomo": 570,
      "IS": 571,
      "ful": 572,
      "nce": 573,
      "Ġspeak": 574,
      "entle": 575,
      "Ġwhich": 576,
      "ICH": 577,
      "AU": 578,
      "OL": 579,
      "ven": 580,
      "DU": 581,
      "Ġim": 582,
      "Ġtru": 583,
      "Ġagain": 584,
      "DUKE": 585,
      "ies": 586,
      "Ġhow": 587,
      "EL": 588,
      "Ġfri": 589,
      "Ġhon": 590,
      "Ã£e": 591,
      "lhe": 592,
      "Ġtoo": 593,
      "ray": 594,
      "Ġheart": 595,
      "lh": 596,
      "Ġoff": 597,
      "CA": 598,
      "We": 599,
      "Ġyet": 600,
      "Ġhand": 601,
      "Thou": 602,
      "With": 603,
      "ĠCapitÃº": 604,
      "ICHARD": 605,
      "ENTIO": 606,
      "au": 607,
      "Ġsome": 608,
      "Which": 609,
      "pt": 610,
      "If": 611,
      "Ġwhen": 612,
      "In": 613,
      "ix": 614,
      "Ġbo": 615,
      "Ġfal": 616,
      "ura": 617,
      "Ġmen": 618,
      "ince": 619,
      "ont": 620,
      "Ġmine": 621,
      "Ġsem": 622,
      "INC": 623,
      "ĠY": 624,
      "out": 625,
      "'t": 626,
      "Ġad": 627,
      "Ġaf": 628,
      "Why": 629,
      "pl": 630,
      "ĠF": 631,
      "wn": 632,
      "Ġro": 633,
      "No": 634,
      "ĠW": 635,
      "Ġtime": 636,
      "ness": 637,
      "Ġtem": 638,
      "AB": 639,
      "Ġsuch": 640,
      "Ġcomm": 641,
      "Ġpart": 642,
      "First": 643,
      "LA": 644,
      "op": 645,
      "Ġbrother": 646,
      "Of": 647,
      "iss": 648,
      "Ġheav": 649,
      "Ġblood": 650,
      "ither": 651,
      "ress": 652,
      "UE": 653,
      "ther": 654,
      "ise": 655,
      "Ġthese": 656,
      "Ġpa": 657,
      "ment": 658,
      "Ġmost": 659,
      "Ġgive": 660,
      "Ġres": 661,
      "ca": 662,
      "ile": 663,
      "ido": 664,
      "Ġpl": 665,
      "Qu": 666,
      "Ġday": 667,
      "Ġear": 668,
      "ĠRICHARD": 669,
      "TER": 670,
      "amb": 671,
      "Ġlife": 672,
      "This": 673,
      "So": 674,
      "do": 675,
      "Ġtell": 676,
      "Ġthink": 677,
      "Ġlook": 678,
      "UCH": 679,
      "Ġru": 680,
      "oul": 681,
      "int": 682,
      "Ġword": 683,
      "Ġey": 684,
      "Ġever": 685,
      "Ġwhere": 686,
      "iu": 687,
      "Ġra": 688,
      "Ġdu": 689,
      "Ġfl": 690,
      "gue": 691,
      "GLO": 692,
      "ber": 693,
      "Ġtake": 694,
      "UCES": 695,
      "Ġfriend": 696,
      "GLOUCES": 697,
      "GLOUCESTER": 698,
      "not": 699,
      "Ġart": 700,
      "Ġmo": 701,
      "ady": 702,
      "Ġass": 703,
      "rown": 704,
      "mo": 705,
      "Ġlhe": 706,
      "ings": 707,
      ",--": 708,
      "eet": 709,
      "lo": 710,
      "Ġgentle": 711,
      "urse": 712,
      "ild": 713,
      "ance": 714,
      "How": 715,
      "RY": 716,
      "tis": 717,
      "Ġco": 718,
      "ras": 719,
      "ĠmÃ£e": 720,
      "Ġrep": 721,
      "QUE": 722,
      "way": 723,
      "INCENTIO": 724,
      "QUEEN": 725,
      "red": 726,
      "ack": 727,
      "ndo": 728,
      "ĠOF": 729,
      "Ġelle": 730,
      "va": 731,
      "UM": 732,
      "Where": 733,
      "LAN": 734,
      "Ġmuch": 735,
      "Ġwar": 736,
      "Ġpass": 737,
      "urn": 738,
      "Ġalgu": 739,
      "ina": 740,
      "Ġmade": 741,
      "iam": 742,
      "Ġtra": 743,
      "Ġcou": 744,
      "Ġhast": 745,
      "Ġtw": 746,
      "Ġfear": 747,
      "ite": 748,
      "Ġtr": 749,
      "Ġbre": 750,
      "Is": 751,
      "asse": 752,
      "Ġbet": 753,
      "ENRY": 754,
      "ac": 755,
      "Ġcous": 756,
      "itt": 757,
      "ved": 758,
      "LE": 759,
      "Be": 760,
      "Ġnem": 761,
      "ĠGod": 762,
      "Ġmes": 763,
      "ida": 764,
      "udo": 765,
      "ough": 766,
      "igh": 767,
      "Ġcons": 768,
      "Ġap": 769,
      "com": 770,
      "ower": 771,
      "Ġnever": 772,
      "ĠVINCENTIO": 773,
      "ĠK": 774,
      "Ġche": 775,
      "Ġgreat": 776,
      "Ġfair": 777,
      "orrow": 778,
      "Ġcomp": 779,
      "Ġnew": 780,
      "ĠRome": 781,
      "cl": 782,
      "cia": 783,
      "Ġhonour": 784,
      "go": 785,
      "ambem": 786,
      "ORK": 787,
      "leas": 788,
      "Ãª": 789,
      "ree": 790,
      "Ġcl": 791,
      "ara": 792,
      "ira": 793,
      "ation": 794,
      "Now": 795,
      "Ġter": 796,
      "Ġdos": 797,
      "Ġcall": 798,
      "INIUS": 799,
      "Or": 800,
      "Ġrest": 801,
      "Ġconf": 802,
      "Ġfoi": 803,
      "ace": 804,
      "Ġcha": 805,
      "Ġany": 806,
      "XX": 807,
      "so": 808,
      "ving": 809,
      "ert": 810,
      "Ġsl": 811,
      "Ġpres": 812,
      "qui": 813,
      "It": 814,
      "Your": 815,
      "Ġstand": 816,
      "Ġcannot": 817,
      "Ġtrue": 818,
      "DW": 819,
      "Ġbeen": 820,
      "DWARD": 821,
      "Ġname": 822,
      "art": 823,
      "Ġsweet": 824,
      "Ġvez": 825,
      "Ġdiz": 826,
      "Ġdoth": 827,
      "Ġpray": 828,
      "igo": 829,
      "hing": 830,
      "Ġwho": 831,
      "Ġdisse": 832,
      "ghter": 833,
      "PET": 834,
      "Ġnoble": 835,
      "LUC": 836,
      "MEN": 837,
      "TH": 838,
      "esse": 839,
      "Ġown": 840,
      "Ġfu": 841,
      "ouse": 842,
      "ears": 843,
      "Ay": 844,
      "Come": 845,
      "ft": 846,
      "There": 847,
      "mente": 848,
      "ĠsÃ³": 849,
      "Ġdone": 850,
      "ife": 851,
      "Ġjo": 852,
      "eu": 853,
      "ger": 854,
      "amente": 855,
      "Ġella": 856,
      "Ġway": 857,
      "Ġother": 858,
      "Ġhead": 859,
      "lhos": 860,
      "the": 861,
      "Ġmean": 862,
      "ip": 863,
      "Ġwr": 864,
      "Ġob": 865,
      "When": 866,
      "dward": 867,
      "ughter": 868,
      "Ġnor": 869,
      "EO": 870,
      "MEO": 871,
      "for": 872,
      "Ãµ": 873,
      "Ġsoul": 874,
      "Ġpal": 875,
      "ROMEO": 876,
      "mos": 877,
      "Ġnight": 878,
      "Ġbear": 879,
      "ENIUS": 880,
      "aint": 881,
      "Ġworld": 882,
      "MENENIUS": 883,
      "ian": 884,
      "Ġbefore": 885,
      "ef": 886,
      "Ġtal": 887,
      "Ġboth": 888,
      "ario": 889,
      "osÃ©": 890,
      "NÃ£o": 891,
      "eram": 892,
      "Then": 893,
      "Ġcasa": 894,
      "OM": 895,
      "RUCH": 896,
      "Ġlong": 897,
      "Ġrem": 898,
      "Ġesc": 899,
      "ause": 900,
      "PETRUCH": 901,
      "PETRUCHIO": 902,
      "Ġdead": 903,
      "idade": 904,
      "Who": 905,
      "Ġvery": 906,
      "TES": 907,
      "anc": 908,
      "Ġqueen": 909,
      "ĠNÃ£o": 910,
      "Ãµes": 911,
      "By": 912,
      "Ġmim": 913,
      "Ġdell": 914,
      "Than": 915,
      "Ġke": 916,
      "quell": 917,
      "Ġarm": 918,
      "ff": 919,
      "Ġdown": 920,
      "anto": 921,
      "Ġimp": 922,
      "HA": 923,
      "Ġsen": 924,
      "Ġmeu": 925,
      "Ġmyself": 926,
      "GR": 927,
      "Ġunt": 928,
      "ult": 929,
      "ĠLord": 930,
      "da": 931,
      "Ġolhos": 932,
      "Ġthus": 933,
      "IOLAN": 934,
      "ilt": 935,
      "ORIOLAN": 936,
      "ORIOLANUS": 937,
      "CORIOLANUS": 938,
      "Sec": 939,
      "age": 940,
      "ied": 941,
      "ret": 942,
      "Ġleave": 943,
      "Ġgrace": 944,
      "ĠĠĠĠĠĠĠĠĠĠĠĠ": 945,
      "Second": 946,
      "Ġapp": 947,
      "Ġmat": 948,
      "Ġpleas": 949,
      "Ġbeing": 950,
      "ĠEdward": 951,
      "ĠMar": 952,
      "ĠDias": 953,
      "ros": 954,
      "aw": 955,
      "bar": 956,
      "less": 957,
      "sw": 958,
      "Ġtudo": 959,
      "Ġsent": 960,
      "Ġeyes": 961,
      "BA": 962,
      "lt": 963,
      "land": 964,
      "Ġmother": 965,
      "sh": 966,
      "Ġold": 967,
      "Ġnat": 968,
      "Ġgr": 969,
      "INA": 970,
      "rer": 971,
      "ima": 972,
      "ĠEDWARD": 973,
      "Ġheaven": 974,
      "ee": 975,
      "Ġsc": 976,
      "itiz": 977,
      "Ã§o": 978,
      "Ġsub": 979,
      "nder": 980,
      "Ġdev": 981,
      "pois": 982,
      "erc": 983,
      "Ġint": 984,
      "Ġlive": 985,
      "ocÃª": 986,
      "Ġchild": 987,
      "Let": 988,
      "ua": 989,
      "ĠQu": 990,
      "Ġwife": 991,
      "nde": 992,
      "Ġbra": 993,
      "ĠIII": 994,
      "Ġgu": 995,
      "ction": 996,
      "She": 997,
      "Ġaway": 998,
      "Ġdas": 999,
      "Ġcor": 1000,
      "ach": 1001,
      "come": 1002,
      "vant": 1003,
      "Ġwom": 1004,
      "ison": 1005,
      "Ġpoor": 1006,
      "ue": 1007,
      "wick": 1008,
      "Ġtambem": 1009,
      "Ġmad": 1010,
      "Ġmight": 1011,
      "Ġdaughter": 1012,
      "Ġmuito": 1013,
      "Ġacc": 1014,
      "Ġtre": 1015,
      "oud": 1016,
      "Ġstay": 1017,
      "Ġdie": 1018,
      "Ġwo": 1019,
      "ica": 1020,
      "nos": 1021,
      "Ġset": 1022,
      "arwick": 1023,
      "itor": 1024,
      "Ġcomes": 1025,
      "bl": 1026,
      "ford": 1027,
      "ks": 1028,
      "Ġir": 1029,
      "Ġcrown": 1030,
      "llow": 1031,
      "Ġmany": 1032,
      "Ġfriends": 1033,
      "je": 1034,
      "Ġsab": 1035,
      "avam": 1036,
      "Tis": 1037,
      "ita": 1038,
      "led": 1039,
      "Ġoutra": 1040,
      "ĠJosÃ©": 1041,
      "ĠYORK": 1042,
      "az": 1043,
      "li": 1044,
      "Ġton": 1045,
      "Ġhouse": 1046,
      "Ġbeg": 1047,
      "Ġhar": 1048,
      "Ġthought": 1049,
      "inda": 1050,
      "ISAB": 1051,
      "ELLA": 1052,
      "ISABELLA": 1053,
      "no": 1054,
      "able": 1055,
      "RAN": 1056,
      "ere": 1057,
      "ious": 1058,
      "uck": 1059,
      "inho": 1060,
      "Ġdia": 1061,
      "Ġdepois": 1062,
      "iro": 1063,
      "Ġlie": 1064,
      "JU": 1065,
      "well": 1066,
      "LIET": 1067,
      "ONTES": 1068,
      "ĠWarwick": 1069,
      "LEONTES": 1070,
      "JULIET": 1071,
      "MI": 1072,
      "Ġpel": 1073,
      "Ġpare": 1074,
      "Ġgone": 1075,
      "Ġprince": 1076,
      "Ġbetter": 1077,
      "ittle": 1078,
      "ier": 1079,
      "ios": 1080,
      "Ġvo": 1081,
      "Ġvis": 1082,
      "DY": 1083,
      "Go": 1084,
      "His": 1085,
      "cc": 1086,
      "Ġbest": 1087,
      "ons": 1088,
      "Ġnothing": 1089,
      "emb": 1090,
      "ĠCl": 1091,
      "ield": 1092,
      "CE": 1093,
      "VOL": 1094,
      "adre": 1095,
      "Ġrec": 1096,
      "ENCE": 1097,
      "LADY": 1098,
      "Ġpalav": 1099,
      "BR": 1100,
      "TA": 1101,
      "che": 1102,
      "Ġcar": 1103,
      "Ġvir": 1104,
      "Ġface": 1105,
      "Ġkeep": 1106,
      "Â«": 1107,
      "ren": 1108,
      "hall": 1109,
      "Ġwit": 1110,
      "Ġpod": 1111,
      "alt": 1112,
      "hard": 1113,
      "Well": 1114,
      "pre": 1115,
      "Ġsle": 1116,
      "ins": 1117,
      "Ġfar": 1118,
      "Ġnoss": 1119,
      "Ġfaz": 1120,
      "Ġshow": 1121,
      "ĠjÃ¡": 1122,
      "une": 1123,
      "Ġnews": 1124,
      "SIC": 1125,
      "Â»": 1126,
      "Ġmal": 1127,
      "ought": 1128,
      "Ġcour": 1129,
      "Ġprom": 1130,
      "Ġnada": 1131,
      "Ġthose": 1132,
      "Ġgri": 1133,
      "Ġret": 1134,
      "SICINIUS": 1135,
      "ne": 1136,
      "ria": 1137,
      "Ġainda": 1138,
      "Ġpur": 1139,
      "Ġlittle": 1140,
      "Ġagainst": 1141,
      "Not": 1142,
      "Ġpla": 1143,
      "Ġhour": 1144,
      "Ġhence": 1145,
      "Ġfort": 1146,
      "ĠEs": 1147,
      "Ġant": 1148,
      "olt": 1149,
      "Ġouv": 1150,
      "Here": 1151,
      "lse": 1152,
      "men": 1153,
      "Ġtinha": 1154,
      "ork": 1155,
      "Ġcur": 1156,
      "Ġend": 1157,
      "Ġtod": 1158,
      "ulo": 1159,
      "Ġmaster": 1160,
      "Ġassim": 1161,
      "Nay": 1162,
      "ns": 1163,
      "ĠtÃ£o": 1164,
      "Ġfil": 1165,
      "Ġyoung": 1166,
      "Ġmesmo": 1167,
      "ze": 1168,
      "oria": 1169,
      "Ġthing": 1170,
      "Ġmet": 1171,
      "Ġstill": 1172,
      "Ġkind": 1173,
      "Ã§Ãµes": 1174,
      "ST": 1175,
      "dade": 1176,
      "gar": 1177,
      "hor": 1178,
      "ĠIV": 1179,
      "Ġdep": 1180,
      "Thy": 1181,
      "cobar": 1182,
      "Ġtempo": 1183,
      "LUCIO": 1184,
      "ior": 1185,
      "mas": 1186,
      "Ġput": 1187,
      "Ġpower": 1188,
      "atch": 1189,
      "Ġinst": 1190,
      "ichard": 1191,
      "Ġvi": 1192,
      "Ġtwo": 1193,
      "ces": 1194,
      "ius": 1195,
      "kes": 1196,
      "Ġped": 1197,
      "ark": 1198,
      "Ġhimself": 1199,
      "iness": 1200,
      "Ġban": 1201,
      "Ġfirst": 1202,
      "Ġelse": 1203,
      "Ġdear": 1204,
      "endo": 1205,
      "cious": 1206,
      "Ġpeace": 1207,
      "Sir": 1208,
      "Ġta": 1209,
      "ellow": 1210,
      "Ġunto": 1211,
      "Ġtill": 1212,
      "Ġca": 1213,
      "Ġcab": 1214,
      "Ġhome": 1215,
      "Ġquando": 1216,
      "uty": 1217,
      "gunt": 1218,
      "Ġjust": 1219,
      "Ġagora": 1220,
      "RI": 1221,
      "ZAB": 1222,
      "rar": 1223,
      "Ġtri": 1224,
      "Ġbid": 1225,
      "Ġback": 1226,
      "Ġfind": 1227,
      "Ġhus": 1228,
      "ator": 1229,
      "ĠELI": 1230,
      "vers": 1231,
      "ETH": 1232,
      "Ġtherefore": 1233,
      "Ġhope": 1234,
      "ĠYork": 1235,
      "Ġearth": 1236,
      "Ġwords": 1237,
      "Ġcount": 1238,
      "ZABETH": 1239,
      "ĠELIZABETH": 1240,
      "Have": 1241,
      "aÃ§Ã£o": 1242,
      "band": 1243,
      "jo": 1244,
      "Ġdre": 1245,
      "Ġcould": 1246,
      "Ġbus": 1247,
      "vere": 1248,
      "Ġprop": 1249,
      "Ġtongue": 1250,
      "Pro": 1251,
      "Ġlady": 1252,
      "Ġthine": 1253,
      "ico": 1254,
      "Ġneed": 1255,
      "HENRY": 1256,
      "get": 1257,
      "of": 1258,
      "tw": 1259,
      "ister": 1260,
      "Ġposs": 1261,
      "enry": 1262,
      "Ġhigh": 1263,
      "Ġforth": 1264,
      "Ġatt": 1265,
      "eria": 1266,
      "Ġop": 1267,
      "ĠII": 1268,
      "Ġhel": 1269,
      "Ġseem": 1270,
      "ople": 1271,
      "ĠRomeo": 1272,
      "Ġhusband": 1273,
      "CL": 1274,
      "St": 1275,
      "fort": 1276,
      "Ġdou": 1277,
      "osse": 1278,
      "Ġright": 1279,
      "ĠVI": 1280,
      "Ġduke": 1281,
      "itizen": 1282,
      "GE": 1283,
      "WAR": 1284,
      "WIC": 1285,
      "ps": 1286,
      "ĠWhat": 1287,
      "Ġchar": 1288,
      "Ġgl": 1289,
      "Ġthough": 1290,
      "WARWIC": 1291,
      "WARWICK": 1292,
      "UT": 1293,
      "Ġpadre": 1294,
      "Ġmind": 1295,
      "ĠHENRY": 1296,
      "Nurse": 1297,
      "Ġsom": 1298,
      "Ġhor": 1299,
      "ird": 1300,
      "ante": 1301,
      "Ġpeople": 1302,
      "cer": 1303,
      "ados": 1304,
      "They": 1305,
      "Ġlords": 1306,
      "ĠDe": 1307,
      "ĠHenry": 1308,
      "Ġfollow": 1309,
      "Ġsemin": 1310,
      "HAM": 1311,
      "IAN": 1312,
      "LET": 1313,
      "PU": 1314,
      "Ġte": 1315,
      "Ġlaw": 1316,
      "Ġdef": 1317,
      "ĠCitizen": 1318,
      "ĠRichard": 1319,
      "Ġhands": 1320,
      "PULET": 1321,
      "EY": 1322,
      "Ġcause": 1323,
      "Ġbod": 1324,
      "Ġpat": 1325,
      "aster": 1326,
      "ento": 1327,
      "Ġonce": 1328,
      "Ġwhy": 1329,
      "Ġoutro": 1330,
      "Ġsaid": 1331,
      "ject": 1332,
      "Good": 1333,
      "MIO": 1334,
      "Shall": 1335,
      "ged": 1336,
      "Ġeram": 1337,
      "Ġchan": 1338,
      "Ġpou": 1339,
      "Ġnone": 1340,
      "ĠatÃ©": 1341,
      "eira": 1342,
      "Ġjoy": 1343,
      "Do": 1344,
      "pa": 1345,
      "ĠU": 1346,
      "Ġmis": 1347,
      "ried": 1348,
      "Ġbring": 1349,
      "Ġroy": 1350,
      "Ġcousa": 1351,
      "Yet": 1352,
      "iet": 1353,
      "Ġinter": 1354,
      "UCKING": 1355,
      "fect": 1356,
      "Ġevery": 1357,
      "BRUT": 1358,
      "UCKINGHAM": 1359,
      "BRUTUS": 1360,
      "All": 1361,
      "BRO": 1362,
      "BUCKINGHAM": 1363,
      "From": 1364,
      "Nor": 1365,
      "TRAN": 1366,
      "be": 1367,
      "gra": 1368,
      "use": 1369,
      "uke": 1370,
      "Ġsim": 1371,
      "Ġpu": 1372,
      "Ġthr": 1373,
      "ĠAn": 1374,
      "INGBRO": 1375,
      "ESS": 1376,
      "ĠBOL": 1377,
      "TRANIO": 1378,
      "INGBROKE": 1379,
      "ĠBOLINGBROKE": 1380,
      "Will": 1381,
      "vost": 1382,
      "ĠÂ«": 1383,
      "Ġcre": 1384,
      "Ġlight": 1385,
      "ĠGl": 1386,
      "swer": 1387,
      "PER": 1388,
      "TIS": 1389,
      "bt": 1390,
      "gre": 1391,
      "unt": 1392,
      "Ġtears": 1393,
      "Ġmist": 1394,
      "its": 1395,
      "Ġlemb": 1396,
      "Ġdeix": 1397,
      "Ġwhose": 1398,
      "ĠMAR": 1399,
      "Ġpergunt": 1400,
      "don": 1401,
      "lf": 1402,
      "ates": 1403,
      "roke": 1404,
      "esso": 1405,
      "pect": 1406,
      "Ġacab": 1407,
      "Ġserv": 1408,
      "ural": 1409,
      "Ġpresent": 1410,
      "Ġdizer": 1411,
      "GAR": 1412,
      "NE": 1413,
      "Ġdest": 1414,
      "Ġcame": 1415,
      "Ġbes": 1416,
      "Ġfic": 1417,
      "Ġfellow": 1418,
      "Ġlast": 1419,
      "Ġhum": 1420,
      "Ġheard": 1421,
      "Ġhapp": 1422,
      "Ġshame": 1423,
      "osto": 1424,
      "Ġworth": 1425,
      "Ġboy": 1426,
      "Ġfull": 1427,
      "Ġwrong": 1428,
      "ĠEscobar": 1429,
      "ĠMARGAR": 1430,
      "ĠMARGARET": 1431,
      "ATH": 1432,
      "lha": 1433,
      "Ġsince": 1434,
      "Ġnos": 1435,
      "Ġland": 1436,
      "ase": 1437,
      "Ġere": 1438,
      "Ġhom": 1439,
      "Ġuse": 1440,
      "Ġva": 1441,
      "Ġrece": 1442,
      "Ġstate": 1443,
      "ĠSer": 1444,
      "MIL": 1445,
      "Ġplace": 1446,
      "Lo": 1447,
      "bre": 1448,
      "sand": 1449,
      "te": 1450,
      "ason": 1451,
      "Ġgod": 1452,
      "Ġmeet": 1453,
      "ĠvocÃª": 1454,
      "esty": 1455,
      "Ġkill": 1456,
      "ĠEng": 1457,
      "indo": 1458,
      "Ã³de": 1459,
      "Ġafter": 1460,
      "HOR": 1461,
      "cent": 1462,
      "ew": 1463,
      "ja": 1464,
      "pon": 1465,
      "ty": 1466,
      "Ġsorrow": 1467,
      "ory": 1468,
      "Ġport": 1469,
      "aria": 1470,
      "ition": 1471,
      "ices": 1472,
      "Ġthousand": 1473,
      "Ġpardon": 1474,
      "ORD": 1475,
      "ANGE": 1476,
      "Ġhold": 1477,
      "Ġfez": 1478,
      "lhor": 1479,
      "GRE": 1480,
      "ANGELO": 1481,
      "CU": 1482,
      "Cl": 1483,
      "Our": 1484,
      "rim": 1485,
      "Ġten": 1486,
      "Ġsm": 1487,
      "Ġmort": 1488,
      "Ġcal": 1489,
      "Ġfosse": 1490,
      "ict": 1491,
      "ARINA": 1492,
      "Ġwhom": 1493,
      "arence": 1494,
      "Ġvirt": 1495,
      "KATH": 1496,
      "con": 1497,
      "Ġmod": 1498,
      "Ġless": 1499,
      "Ġhither": 1500,
      "Ġbem": 1501,
      "eth": 1502,
      "Ġsec": 1503,
      "Ġweep": 1504,
      "urde": 1505,
      "Ġfall": 1506,
      "selves": 1507,
      "Ġeste": 1508,
      "cius": 1509,
      "Ġenem": 1510,
      "Ġabout": 1511,
      "Ġeye": 1512,
      "Ġhelp": 1513,
      "KATHARINA": 1514,
      "rant": 1515,
      "ute": 1516,
      "Ġvida": 1517,
      "Ġanswer": 1518,
      "Ġfool": 1519,
      "ship": 1520,
      "day": 1521,
      "Ġia": 1522,
      "Ġisto": 1523,
      "iga": 1524,
      "Ġmaid": 1525,
      "LUS": 1526,
      "der": 1527,
      "Ġaos": 1528,
      "ount": 1529,
      "Ġcap": 1530,
      "Ġpri": 1531,
      "Ġmelhor": 1532,
      "uth": 1533,
      "ESCA": 1534,
      "Ġgrave": 1535,
      "Ġgracious": 1536,
      "Ġpers": 1537,
      "Ġhate": 1538,
      "ideia": 1539,
      "Ġgentleman": 1540,
      "Ġcousin": 1541,
      "ĠKing": 1542,
      "Ġdella": 1543,
      "Ġgrief": 1544,
      "Ġseminario": 1545,
      "ESCALUS": 1546,
      "ily": 1547,
      "nÃ£o": 1548,
      "old": 1549,
      "vo": 1550,
      "we": 1551,
      "Ġaqui": 1552,
      "Ġdra": 1553,
      "Ġinto": 1554,
      "Ġsun": 1555,
      "Ġmakes": 1556,
      "Ġdisp": 1557,
      "ump": 1558,
      "Ġroyal": 1559,
      "Hath": 1560,
      "encia": 1561,
      "imes": 1562,
      "Ġstre": 1563,
      "ores": 1564,
      "Ġwoman": 1565,
      "An": 1566,
      "DUCH": 1567,
      "Un": 1568,
      "des": 1569,
      "vent": 1570,
      "Ġideia": 1571,
      "Ġturn": 1572,
      "Ġdost": 1573,
      "ham": 1574,
      "Ġbat": 1575,
      "Ġquiz": 1576,
      "Ġinf": 1577,
      "Ġcomfort": 1578,
      "Ġste": 1579,
      "Ġsupp": 1580,
      "deed": 1581,
      "ĠDuke": 1582,
      "Ġverdade": 1583,
      "Ġcoun": 1584,
      "Ġsleep": 1585,
      "urderer": 1586,
      "DUCHESS": 1587,
      "Lord": 1588,
      "Ġord": 1589,
      "hes": 1590,
      "Ġmor": 1591,
      "Ġover": 1592,
      "Ġbel": 1593,
      "Ġref": 1594,
      "ĠAs": 1595,
      "rance": 1596,
      "Ġtalk": 1597,
      "Ġpalavras": 1598,
      "Ġbody": 1599,
      "IA": 1600,
      "Ġwilt": 1601,
      "gelo": 1602,
      "Ġesta": 1603,
      "Ġrua": 1604,
      "ĠMarcius": 1605,
      "ience": 1606,
      "Ġi": 1607,
      "arry": 1608,
      "Ġbed": 1609,
      "adas": 1610,
      "Ġval": 1611,
      "Ġvolt": 1612,
      "Ġsegu": 1613,
      "Ġfault": 1614,
      "Ġprime": 1615,
      "ieve": 1616,
      "Ġestava": 1617,
      "Ġprove": 1618,
      "CAMIL": 1619,
      "Ġaff": 1620,
      "Ġplay": 1621,
      "Ġtraitor": 1622,
      "Ġconfess": 1623,
      "Ġplease": 1624,
      "eech": 1625,
      "ĠClarence": 1626,
      "CAMILLO": 1627,
      "God": 1628,
      "les": 1629,
      "ta": 1630,
      "Ġsound": 1631,
      "Ġpesso": 1632,
      "Ġdeed": 1633,
      "amos": 1634,
      "Ġwel": 1635,
      "herd": 1636,
      "ender": 1637,
      "Ġdisc": 1638,
      "Ġthank": 1639,
      "Ġcham": 1640,
      "Ġfilho": 1641,
      "Com": 1642,
      "TEN": 1643,
      "dd": 1644,
      "ois": 1645,
      "pare": 1646,
      "Ġtard": 1647,
      "ised": 1648,
      "Ġcare": 1649,
      "ows": 1650,
      "Ġindeed": 1651,
      "Ġhas": 1652,
      "illain": 1653,
      "ury": 1654,
      "mend": 1655,
      "onder": 1656,
      "hold": 1657,
      "Ġsword": 1658,
      "Ġporque": 1659,
      "Ġfalse": 1660,
      "Ġresp": 1661,
      "quella": 1662,
      "Ġantes": 1663,
      "ĠAngelo": 1664,
      "HORTEN": 1665,
      "HORTENS": 1666,
      "FRI": 1667,
      "Sh": 1668,
      "cess": 1669,
      "hos": 1670,
      "Ġsin": 1671,
      "Ġfight": 1672,
      "lly": 1673,
      "Ġeven": 1674,
      "Ġsovere": 1675,
      "ĠEra": 1676,
      "Ġanother": 1677,
      "Ġlogo": 1678,
      "ista": 1679,
      "Ġcompan": 1680,
      "Ġnature": 1681,
      "Provost": 1682,
      "HORTENSIO": 1683,
      "FRIAR": 1684,
      ",'": 1685,
      "CapitÃº": 1686,
      "PTIS": 1687,
      "TOL": 1688,
      "cle": 1689,
      "na": 1690,
      "pherd": 1691,
      "Ġ_": 1692,
      "inu": 1693,
      "Ġden": 1694,
      "hal": 1695,
      "Ġcam": 1696,
      "ĠpÃ³de": 1697,
      "quer": 1698,
      "Ġunder": 1699,
      "Ġsend": 1700,
      "Ġdist": 1701,
      "ĠÃ¡s": 1702,
      "Ġpae": 1703,
      "BAPTIS": 1704,
      "Ġcourt": 1705,
      "Ġfortune": 1706,
      "Ġbanish": 1707,
      "BAPTISTA": 1708,
      "CUS": 1709,
      "COM": 1710,
      "Upon": 1711,
      "YCUS": 1712,
      "cis": 1713,
      "iÃ§Ã£o": 1714,
      "hed": 1715,
      "Ġmerc": 1716,
      "ouch": 1717,
      "Ġwant": 1718,
      "Ġpra": 1719,
      "ary": 1720,
      "Ġreven": 1721,
      "Ġstri": 1722,
      "Ã§as": 1723,
      "ĠEu": 1724,
      "Ġprison": 1725,
      "Ġrather": 1726,
      "AUTOL": 1727,
      "Ġmatter": 1728,
      "Ġcountry": 1729,
      "Ġdoubt": 1730,
      "COMINIUS": 1731,
      "AUTOLYCUS": 1732,
      ".'": 1733,
      "At": 1734,
      "Are": 1735,
      "Even": 1736,
      "More": 1737,
      "eÃ§a": 1738,
      "gain": 1739,
      "morrow": 1740,
      "ped": 1741,
      "rem": 1742,
      "Ġdiv": 1743,
      "Ġwish": 1744,
      "Ġcra": 1745,
      "Ġpen": 1746,
      "ener": 1747,
      "Ġyears": 1748,
      "adua": 1749,
      "Ġsold": 1750,
      "Ġliv": 1751,
      "Ġlies": 1752,
      "Ġonly": 1753,
      "ARENCE": 1754,
      "Third": 1755,
      "Ġoutros": 1756,
      "Ġcontent": 1757,
      "Ġtruth": 1758,
      "Ġpodia": 1759,
      "BEN": 1760,
      "On": 1761,
      "Would": 1762,
      "ail": 1763,
      "ĠBut": 1764,
      "imo": 1765,
      "ĠentÃ£o": 1766,
      "Ġcommand": 1767,
      "Ġbreath": 1768,
      "Ġarms": 1769,
      "Ġdream": 1770,
      "CLARENCE": 1771,
      "ĠDeus": 1772,
      "Ġpouco": 1773,
      "MAR": 1774,
      "NOR": 1775,
      "by": 1776,
      "ock": 1777,
      "Ã´": 1778,
      "Ġsal": 1779,
      "Ġgest": 1780,
      "Ġstra": 1781,
      "ĠCome": 1782,
      "Ġannos": 1783,
      "Ġshalt": 1784,
      "Ġfalar": 1785,
      "VOLIO": 1786,
      "Ġbusiness": 1787,
      "Clown": 1788,
      "BENVOLIO": 1789,
      "MER": 1790,
      "PRO": 1791,
      "SPER": 1792,
      "bra": 1793,
      "rou": 1794,
      "Ġcost": 1795,
      "ceu": 1796,
      "Ġstr": 1797,
      "ush": 1798,
      "Ġfare": 1799,
      "Ġenough": 1800,
      "Ġholy": 1801,
      "Ġspir": 1802,
      "UMIO": 1803,
      "Ġalguma": 1804,
      "GRUMIO": 1805,
      "Ġhomem": 1806,
      "PROSPER": 1807,
      "PROSPERO": 1808,
      "iqu": 1809,
      "ms": 1810,
      "wh": 1811,
      "Ġwind": 1812,
      "Ġbon": 1813,
      "Ġpens": 1814,
      "Ġpity": 1815,
      "Ġlay": 1816,
      "Ġgre": 1817,
      "Ġhang": 1818,
      "idos": 1819,
      "Ġsea": 1820,
      "Ġstran": 1821,
      "ĠCom": 1822,
      "ĠMurderer": 1823,
      "Ġproud": 1824,
      "Ġlev": 1825,
      "Ġswear": 1826,
      "Ġesp": 1827,
      "Ġvel": 1828,
      "Ġtodos": 1829,
      "CUTIO": 1830,
      "MERCUTIO": 1831,
      "ial": 1832,
      "ike": 1833,
      "Ġdan": 1834,
      "ery": 1835,
      "Ġcu": 1836,
      "Ġcho": 1837,
      "Ġthree": 1838,
      "Ġquar": 1839,
      "ides": 1840,
      "Ġvillain": 1841,
      "ester": 1842,
      "Ġlives": 1843,
      "ella": 1844,
      "Were": 1845,
      "ĠKate": 1846,
      "LUCENTIO": 1847,
      "Ġwelcome": 1848,
      "POM": 1849,
      "Tw": 1850,
      "ient": 1851,
      "para": 1852,
      "su": 1853,
      "Ġsit": 1854,
      "Ġsil": 1855,
      "Ġmon": 1856,
      "isse": 1857,
      "Ġceu": 1858,
      "ĠpÃ©": 1859,
      "Ġfree": 1860,
      "Ġget": 1861,
      "Ġbea": 1862,
      "Ġwithin": 1863,
      "Ġkiss": 1864,
      "Ġprin": 1865,
      "Ġsaw": 1866,
      "LIX": 1867,
      "LAND": 1868,
      "XXX": 1869,
      "Ġmadam": 1870,
      "Ġpurp": 1871,
      "Ġhappy": 1872,
      "Ġgods": 1873,
      "Ġsovereign": 1874,
      "POMP": 1875,
      "LINA": 1876,
      "PAU": 1877,
      "iol": 1878,
      "sim": 1879,
      "za": 1880,
      "Ġill": 1881,
      "Ġsister": 1882,
      "Ġcr": 1883,
      "Ġcity": 1884,
      "Ġfoul": 1885,
      "Ġgiv": 1886,
      "ced": 1887,
      "cho": 1888,
      "Ġprof": 1889,
      "onta": 1890,
      "Ġsomet": 1891,
      "Ġbeseech": 1892,
      "PAULINA": 1893,
      "VII": 1894,
      "YORK": 1895,
      "eg": 1896,
      "mp": 1897,
      "xt": 1898,
      "Ġtanto": 1899,
      "Ġmer": 1900,
      "Ġcond": 1901,
      "Ġoath": 1902,
      "ars": 1903,
      "asi": 1904,
      "Ġyield": 1905,
      "Ġyours": 1906,
      "usic": 1907,
      "essen": 1908,
      "ANT": 1909,
      "Ġenter": 1910,
      "plic": 1911,
      "Ġbreak": 1912,
      "Ġappe": 1913,
      "Ġmeans": 1914,
      "form": 1915,
      "Ġsubject": 1916,
      "gether": 1917,
      "Ġhorse": 1918,
      "GREMIO": 1919,
      "gainst": 1920,
      "POMPEY": 1921,
      "NIA": 1922,
      "OLIX": 1923,
      "POLIX": 1924,
      "Su": 1925,
      "balt": 1926,
      "ove": 1927,
      "ybalt": 1928,
      "Ġsus": 1929,
      "ĠmÃ£o": 1930,
      "Ġdar": 1931,
      "Ġbu": 1932,
      "Ġborn": 1933,
      "Ġye": 1934,
      "Ġthings": 1935,
      "ans": 1936,
      "Ġmeus": 1937,
      "entinho": 1938,
      "almente": 1939,
      "amÃ£e": 1940,
      "ENES": 1941,
      "Ġwhile": 1942,
      "uma": 1943,
      "ĠPadua": 1944,
      "Ġgrande": 1945,
      "ĠNor": 1946,
      "Ã³s": 1947,
      "Ġentre": 1948,
      "Ġbloody": 1949,
      "Ġlooks": 1950,
      "UMNIA": 1951,
      "quelle": 1952,
      "like": 1953,
      "VOLUMNIA": 1954,
      "ĠcabeÃ§a": 1955,
      "POLIXENES": 1956,
      "GON": 1957,
      "Her": 1958,
      "VI": 1959,
      "pr": 1960,
      "tle": 1961,
      "via": 1962,
      "zes": 1963,
      "Ġri": 1964,
      "Ġtit": 1965,
      "rel": 1966,
      "Ġdous": 1967,
      "Ġwin": 1968,
      "Ġwound": 1969,
      "Ġfire": 1970,
      "osme": 1971,
      "ember": 1972,
      "Ġyourself": 1973,
      "ters": 1974,
      "Ġmaj": 1975,
      "Ġfaith": 1976,
      "INGS": 1977,
      "vingman": 1978,
      "Ġnatural": 1979,
      "Ġpela": 1980,
      "Ġnossa": 1981,
      "STINGS": 1982,
      "ĠServingman": 1983,
      "centio": 1984,
      "Ah": 1985,
      "RENCE": 1986,
      "Say": 1987,
      "gado": 1988,
      "ling": 1989,
      "ten": 1990,
      "und": 1991,
      "Ġdru": 1992,
      "ors": 1993,
      "Ġbast": 1994,
      "Ġbeat": 1995,
      "Ġseus": 1996,
      "ĠEst": 1997,
      "cto": 1998,
      "ĠLAU": 1999,
      "ĠBentinho": 2000,
      "Ġesper": 2001,
      "ustina": 2002,
      "Ġmark": 2003,
      "Ġcommon": 2004,
      "Ġresol": 2005,
      "ertain": 2006,
      "HASTINGS": 2007,
      "Ġchildren": 2008,
      "Ġmistress": 2009,
      "essenger": 2010,
      "ĠLAURENCE": 2011,
      "BY": 2012,
      "BER": 2013,
      "car": 2014,
      "hÃ£": 2015,
      "ĠX": 2016,
      "Ġmur": 2017,
      "Ġdire": 2018,
      "Ġbur": 2019,
      "ĠlÃ¡": 2020,
      "Ġquer": 2021,
      "essa": 2022,
      "ular": 2023,
      "Ġuncle": 2024,
      "Therefore": 2025,
      "ĠQuando": 2026,
      "Ġmajesty": 2027,
      "CLI": 2028,
      "FF": 2029,
      "Was": 2030,
      "dom": 2031,
      "ning": 2032,
      "Ġtender": 2033,
      "Ġfur": 2034,
      "Ġnas": 2035,
      "aram": 2036,
      "Ġlate": 2037,
      "Ġtold": 2038,
      "Ġgener": 2039,
      "lem": 2040,
      "ament": 2041,
      "Ġseen": 2042,
      "Ġisso": 2043,
      "Ġform": 2044,
      "illo": 2045,
      "Ġsoon": 2046,
      "ĠMas": 2047,
      "ĠSen": 2048,
      "Ġsave": 2049,
      "Ġleft": 2050,
      "cip": 2051,
      "Ġprov": 2052,
      "Ġdays": 2053,
      "UMBER": 2054,
      "THUMBER": 2055,
      "Ġwoe": 2056,
      "Look": 2057,
      "ĠEngland": 2058,
      "NORTHUMBER": 2059,
      "CLIFF": 2060,
      "NORTHUMBERLAND": 2061,
      "ID": 2062,
      "Take": 2063,
      "cre": 2064,
      "Ãī": 2065,
      "Ġsad": 2066,
      "Ġsight": 2067,
      "Ġsign": 2068,
      "Ġdem": 2069,
      "let": 2070,
      "idow": 2071,
      "Ġven": 2072,
      "Ġdoes": 2073,
      "ils": 2074,
      "Ġprot": 2075,
      "ĠestÃ¡": 2076,
      "Ġdeser": 2077,
      "ĠJul": 2078,
      "Though": 2079,
      "Ġcommigo": 2080,
      "Ġreturn": 2081,
      "Ġmercy": 2082,
      "Ġfarewell": 2083,
      "NNE": 2084,
      "ug": 2085,
      "hei": 2086,
      "ĠsÃ£o": 2087,
      "Ġfiz": 2088,
      "Ġdeep": 2089,
      "Ġqual": 2090,
      "ĠCosme": 2091,
      "ĠANNE": 2092,
      "Ġfoot": 2093,
      "Ġuns": 2094,
      "unes": 2095,
      "Ġgold": 2096,
      "Ġmarry": 2097,
      "Ġheavy": 2098,
      "Ġwarrant": 2099,
      "Ġmesma": 2100,
      "quiel": 2101,
      "zequiel": 2102,
      "Ġthrough": 2103,
      "Ġperson": 2104,
      "Ġtarde": 2105,
      "Ġdanger": 2106,
      "Did": 2107,
      "Give": 2108,
      "PR": 2109,
      "broke": 2110,
      "ys": 2111,
      "Ġfit": 2112,
      "Ġnurse": 2113,
      "enh": 2114,
      "Ġtogether": 2115,
      "vel": 2116,
      "quen": 2117,
      "Ġgrow": 2118,
      "Ġdel": 2119,
      "sem": 2120,
      "ceive": 2121,
      "Ġrequ": 2122,
      "Ġreason": 2123,
      "ours": 2124,
      "ĠEm": 2125,
      "oling": 2126,
      "Ġsure": 2127,
      "Ġsuff": 2128,
      "ifford": 2129,
      "guei": 2130,
      "ĠLu": 2131,
      "Ġenc": 2132,
      "ĠJustina": 2133,
      "laim": 2134,
      "CAPULET": 2135,
      "INCE": 2136,
      "Ġcold": 2137,
      "Ġalgum": 2138,
      "Ġalguns": 2139,
      "ĠGloria": 2140,
      "PRINCE": 2141,
      "Mas": 2142,
      "king": 2143,
      "ring": 2144,
      "sa": 2145,
      "ume": 2146,
      "Ġtom": 2147,
      "Ġtimes": 2148,
      "Ġage": 2149,
      "oriol": 2150,
      "Ġph": 2151,
      "Ġocc": 2152,
      "Ġfam": 2153,
      "Ġfel": 2154,
      "Ġlost": 2155,
      "atter": 2156,
      "ceed": 2157,
      "irm": 2158,
      "Ġins": 2159,
      "enty": 2160,
      "Ġwithout": 2161,
      "ilia": 2162,
      "Ġconcl": 2163,
      "Ã¡mos": 2164,
      "arewell": 2165,
      "Ġsac": 2166,
      "Ġext": 2167,
      "Ġcontinu": 2168,
      "ignior": 2169,
      "Ġadm": 2170,
      "ments": 2171,
      "Ġpluck": 2172,
      "Ġreport": 2173,
      "Ġliege": 2174,
      "Ġvisit": 2175,
      "Ġtodas": 2176,
      "Ġporta": 2177,
      "Ġbelieve": 2178,
      "Ġspirit": 2179,
      "Ġpurpose": 2180,
      "olingbroke": 2181,
      "Al": 2182,
      "One": 2183,
      "ken": 2184,
      "ner": 2185,
      "ÃŃ": 2186,
      "Ġair": 2187,
      "outh": 2188,
      "Ġwat": 2189,
      "Ġpast": 2190,
      "Ġlear": 2191,
      "Ġloss": 2192,
      "Ġheir": 2193,
      "atis": 2194,
      "Ġmed": 2195,
      "ets": 2196,
      "Ġsei": 2197,
      "aves": 2198,
      "pel": 2199,
      "ains": 2200,
      "Ġthyself": 2201,
      "Ã¡ra": 2202,
      "Whose": 2203,
      "ĠSe": 2204,
      "Ġoutras": 2205,
      "ĠBolingbroke": 2206,
      "Ġsays": 2207,
      "Ġexp": 2208,
      "Ġexec": 2209,
      "Ġprecis": 2210,
      "ressa": 2211,
      "Ġstrange": 2212,
      "ALO": 2213,
      "Had": 2214,
      "aes": 2215,
      "cha": 2216,
      "gs": 2217,
      "most": 2218,
      "por": 2219,
      "par": 2220,
      "ouc": 2221,
      "Ġcry": 2222,
      "Ġfav": 2223,
      "Ġef": 2224,
      "osed": 2225,
      "ades": 2226,
      "idas": 2227,
      "ĠCA": 2228,
      "ift": 2229,
      "Ġentreat": 2230,
      "Ġadv": 2231,
      "Ġears": 2232,
      "Ġrepet": 2233,
      "Ġhaste": 2234,
      "Ġground": 2235,
      "ĠClifford": 2236,
      "Ġpalavra": 2237,
      "Ġinstru": 2238,
      "ĠUm": 2239,
      "Should": 2240,
      "ĠJuliet": 2241,
      "IZ": 2242,
      "Like": 2243,
      "air": 2244,
      "dos": 2245,
      "night": 2246,
      "ser": 2247,
      "ĠThe": 2248,
      "ined": 2249,
      "Ġcer": 2250,
      "Ġcapit": 2251,
      "Ġfim": 2252,
      "Ġfly": 2253,
      "llo": 2254,
      "oman": 2255,
      "Ġtoward": 2256,
      "Ġdeu": 2257,
      "Ġalli": 2258,
      "Ġdare": 2259,
      "Ġkne": 2260,
      "laud": 2261,
      "oraÃ§Ã£o": 2262,
      "Ġpoint": 2263,
      "Ġfriar": 2264,
      "ĠFrance": 2265,
      "Ġduas": 2266,
      "Ġconsent": 2267,
      "Ġslain": 2268,
      "Ġremember": 2269,
      "Ġjustice": 2270,
      "Ġstraight": 2271,
      "iquei": 2272,
      "Can": 2273,
      "FL": 2274,
      "FID": 2275,
      "May": 2276,
      "Some": 2277,
      "aix": 2278,
      "ever": 2279,
      "hora": 2280,
      "iver": 2281,
      "Ġtorn": 2282,
      "Ġact": 2283,
      "Ġsur": 2284,
      "Ġmiss": 2285,
      "orm": 2286,
      "Ġcurse": 2287,
      "Ġben": 2288,
      "Ġfast": 2289,
      "Ġev": 2290,
      "ato": 2291,
      "rah": 2292,
      "Ġquick": 2293,
      "adam": 2294,
      "ution": 2295,
      "Ã§os": 2296,
      "Ġsua": 2297,
      "iff": 2298,
      "Ġnear": 2299,
      "ĠMonta": 2300,
      "Ġalone": 2301,
      "ORIZ": 2302,
      "Ġacha": 2303,
      "Ġdesire": 2304,
      "ured": 2305,
      "Ġabs": 2306,
      "entleman": 2307,
      "AUFID": 2308,
      "Ġimag": 2309,
      "Ġtrust": 2310,
      "Ġbold": 2311,
      "Ġservice": 2312,
      "Ġworthy": 2313,
      "Ġstrong": 2314,
      "Ġbeauty": 2315,
      "ĠCAPULET": 2316,
      "FLORIZ": 2317,
      "AUFIDIUS": 2318,
      "FLORIZEL": 2319,
      "SE": 2320,
      "Tell": 2321,
      "VER": 2322,
      "cas": 2323,
      "pro": 2324,
      "ude": 2325,
      "with": 2326,
      "Ġer": 2327,
      "Ġtouch": 2328,
      "Ġcast": 2329,
      "Ġbro": 2330,
      "Ġfound": 2331,
      "Ġnum": 2332,
      "itos": 2333,
      "ash": 2334,
      "Ġtodo": 2335,
      "ĠIs": 2336,
      "iment": 2337,
      "Ġreg": 2338,
      "Ġready": 2339,
      "Ġask": 2340,
      "ION": 2341,
      "ĠEzequiel": 2342,
      "ĠĠĠĠĠĠ": 2343,
      "Ġbrought": 2344,
      "Ġacce": 2345,
      "unca": 2346,
      "ĠTybalt": 2347,
      "Ġsempre": 2348,
      "Ġtraz": 2349,
      "Ġhard": 2350,
      "Ġfazer": 2351,
      "Ġenemy": 2352,
      "Ġprimeiro": 2353,
      "Ġrevenge": 2354,
      "Ġgeneral": 2355,
      "laudio": 2356,
      "!'": 2357,
      "De": 2358,
      "ible": 2359,
      "right": 2360,
      "rist": 2361,
      "uz": 2362,
      "Ġaut": 2363,
      "hee": 2364,
      "Ġsi": 2365,
      "Ġspo": 2366,
      "ino": 2367,
      "Ġduty": 2368,
      "esp": 2369,
      "ĠnÃ³s": 2370,
      "Ġlose": 2371,
      "Ġgost": 2372,
      "Ã£os": 2373,
      "Ġrel": 2374,
      "Ġitself": 2375,
      "ols": 2376,
      "apa": 2377,
      "ĠPet": 2378,
      "ĠHere": 2379,
      "Ġcanst": 2380,
      "Ġknows": 2381,
      "inks": 2382,
      "Ġmarried": 2383,
      "Ġhonest": 2384,
      "ples": 2385,
      "inte": 2386,
      "Ġgrant": 2387,
      "Ġwoo": 2388,
      "Ġthoughts": 2389,
      "Ġcharge": 2390,
      "Ġlembra": 2391,
      "ĠSenator": 2392,
      "Against": 2393,
      "Bec": 2394,
      "CIUS": 2395,
      "RICHARD": 2396,
      "bo": 2397,
      "hon": 2398,
      "oi": 2399,
      "ple": 2400,
      "sue": 2401,
      "Ġid": 2402,
      "ĠYou": 2403,
      "Ġtro": 2404,
      "Ġmorn": 2405,
      "Ġbar": 2406,
      "Ġbri": 2407,
      "Ġboc": 2408,
      "ithee": 2409,
      "vez": 2410,
      "Ġdeli": 2411,
      "Ġread": 2412,
      "Ġwear": 2413,
      "These": 2414,
      "Ġamigo": 2415,
      "ĠHe": 2416,
      "Ġenv": 2417,
      "Ġelles": 2418,
      "Ġspeed": 2419,
      "Ġoffic": 2420,
      "Ġtwenty": 2421,
      "Ġtrou": 2422,
      "Ġstands": 2423,
      "BAST": 2424,
      "itizens": 2425,
      "Ġdevil": 2426,
      "Shepherd": 2427,
      "Ġpelo": 2428,
      "riage": 2429,
      "Ġhours": 2430,
      "Ġattend": 2431,
      "Ġstreng": 2432,
      "SEBAST": 2433,
      "SEBASTIAN": 2434,
      "OW": 2435,
      "Re": 2436,
      "ges": 2437,
      "ual": 2438,
      "Ġcut": 2439,
      "Ġfore": 2440,
      "ĠfÃ³": 2441,
      "Ġfield": 2442,
      "itar": 2443,
      "Ġyouth": 2444,
      "Ġhell": 2445,
      "ingham": 2446,
      "Ġbell": 2447,
      "Ġmem": 2448,
      "Ġinc": 2449,
      "Ġult": 2450,
      "Ġhalf": 2451,
      "alth": 2452,
      "amillo": 2453,
      "olk": 2454,
      "apt": 2455,
      "Thus": 2456,
      "Ġjud": 2457,
      "fection": 2458,
      "ĠHast": 2459,
      "ixt": 2460,
      "Ġmenos": 2461,
      "Ġmock": 2462,
      "iamos": 2463,
      "Ġfearful": 2464,
      "Ġresto": 2465,
      "Ġsenhor": 2466,
      "Ġsaber": 2467,
      "Ġvoz": 2468,
      "Ġcounsel": 2469,
      "Ġgesto": 2470,
      "Ġlearn": 2471,
      ".Â»": 2472,
      "BION": 2473,
      "DEL": 2474,
      "Till": 2475,
      "af": 2476,
      "chan": 2477,
      "up": 2478,
      "Ġmul": 2479,
      "inal": 2480,
      "Ġdam": 2481,
      "Ġwret": 2482,
      "Ġcreat": 2483,
      "Ġbos": 2484,
      "ona": 2485,
      "Ġeach": 2486,
      "Ġgar": 2487,
      "Ġbehold": 2488,
      "ads": 2489,
      "entro": 2490,
      "ĠCoriol": 2491,
      "ĠClaudio": 2492,
      "iles": 2493,
      "peak": 2494,
      "ions": 2495,
      "Ġprim": 2496,
      "Ġgrand": 2497,
      "Ġserve": 2498,
      "Ġpequen": 2499,
      "Ġmarriage": 2500,
      "Ġhearts": 2501,
      "aunt": 2502,
      "Ġfui": 2503,
      "Ġappare": 2504,
      "uckingham": 2505,
      "ches": 2506,
      "Ġtrib": 2507,
      "Ġrespond": 2508,
      "MARCIUS": 2509,
      "oucester": 2510,
      "ĠMontague": 2511,
      "BIONDEL": 2512,
      "Ġbosom": 2513,
      "BIONDELLO": 2514,
      "Away": 2515,
      "MON": 2516,
      "Madam": 2517,
      "Pr": 2518,
      "bly": 2519,
      "ex": 2520,
      "fid": 2521,
      "folk": 2522,
      "iers": 2523,
      "now": 2524,
      "Ġsor": 2525,
      "Ġsatis": 2526,
      "Ġdro": 2527,
      "Ġbound": 2528,
      "ral": 2529,
      "lex": 2530,
      "Ġred": 2531,
      "Ġconhe": 2532,
      "ĠĠĠĠĠ": 2533,
      "els": 2534,
      "Ġshort": 2535,
      "ĠBuckingham": 2536,
      "Ġknown": 2537,
      "ĠNo": 2538,
      "Ġappro": 2539,
      "Ġguilt": 2540,
      "Ġharm": 2541,
      "Ġtale": 2542,
      "Ġhighness": 2543,
      "Ġopen": 2544,
      "Ġcompany": 2545,
      "Ġstrike": 2546,
      "Ã´r": 2547,
      "Ġsala": 2548,
      "Ġmurder": 2549,
      "ĠHastings": 2550,
      "Farewell": 2551,
      "HER": 2552,
      "OP": 2553,
      "br": 2554,
      "Ġtran": 2555,
      "Ġside": 2556,
      "ĠmÃ£os": 2557,
      "oura": 2558,
      "Ġdias": 2559,
      "Ġwatch": 2560,
      "ished": 2561,
      "ĠcoraÃ§Ã£o": 2562,
      "Ġnam": 2563,
      "Ġnenh": 2564,
      "enc": 2565,
      "Ġund": 2566,
      "lect": 2567,
      "ander": 2568,
      "Ġnoite": 2569,
      "Ġliber": 2570,
      "ola": 2571,
      "Ġloving": 2572,
      "Ã¡s": 2573,
      "ĠAUM": 2574,
      "Ġamb": 2575,
      "ERLE": 2576,
      "akes": 2577,
      "ĠPa": 2578,
      "Ġwork": 2579,
      "Ġcontra": 2580,
      "Ġpret": 2581,
      "ONIO": 2582,
      "Ġheavens": 2583,
      "Ġrun": 2584,
      "Ġraz": 2585,
      "Ġmove": 2586,
      "Ġescre": 2587,
      "ancha": 2588,
      "Ġdelle": 2589,
      "Ġvoices": 2590,
      "ched": 2591,
      "ween": 2592,
      "Ġdraw": 2593,
      "Ġsomething": 2594,
      "ANTONIO": 2595,
      "Ġcapitulo": 2596,
      "Ġdeliver": 2597,
      "Ġstrength": 2598,
      "ĠAUMERLE": 2599,
      "Marry": 2600,
      "Pray": 2601,
      "Se": 2602,
      "See": 2603,
      "ZALO": 2604,
      "bs": 2605,
      "ging": 2606,
      "hi": 2607,
      "hood": 2608,
      "ses": 2609,
      "Ġtres": 2610,
      "Ġmusic": 2611,
      "Ġwast": 2612,
      "Ġwonder": 2613,
      "Ġwidow": 2614,
      "Ġcol": 2615,
      "Ġbit": 2616,
      "esc": 2617,
      "Ġpost": 2618,
      "Ġpag": 2619,
      "Ġonde": 2620,
      "Ġqueria": 2621,
      "icular": 2622,
      "Ġvers": 2623,
      "Ġstir": 2624,
      "Ġminut": 2625,
      "Ġdiss": 2626,
      "ivel": 2627,
      "ĠGentleman": 2628,
      "ĠPr": 2629,
      "ĠLanc": 2630,
      "Ġsake": 2631,
      "ives": 2632,
      "Ġdidst": 2633,
      "Ġgentlemen": 2634,
      "Ġcloud": 2635,
      "ĠQue": 2636,
      "Ġguard": 2637,
      "Ġwomen": 2638,
      "Ġdepressa": 2639,
      "ĠGloucester": 2640,
      "Ġenemies": 2641,
      "Ġpessoa": 2642,
      "GONZALO": 2643,
      "Ġprimeira": 2644,
      "ĠLancaster": 2645,
      "Con": 2646,
      "Most": 2647,
      "Ser": 2648,
      "Unt": 2649,
      "bed": 2650,
      "cal": 2651,
      "gou": 2652,
      "ĠTh": 2653,
      "Ġtio": 2654,
      "Ġsing": 2655,
      "Ġbreat": 2656,
      "Ġpie": 2657,
      "ench": 2658,
      "Ġlen": 2659,
      "asure": 2660,
      "Ġtoda": 2661,
      "Ġgates": 2662,
      "atro": 2663,
      "ingu": 2664,
      "ram": 2665,
      "raz": 2666,
      "imento": 2667,
      "Ġind": 2668,
      "ster": 2669,
      "Ġseu": 2670,
      "Ġcoming": 2671,
      "ĠCamillo": 2672,
      "antes": 2673,
      "Ġsum": 2674,
      "Ġsucc": 2675,
      "Ġnext": 2676,
      "Ġprima": 2677,
      "Ġknew": 2678,
      "Ġalma": 2679,
      "ĠOs": 2680,
      "ivo": 2681,
      "Ġthanks": 2682,
      "Ġseek": 2683,
      "Ġfeel": 2684,
      "Ġcase": 2685,
      "Ġpale": 2686,
      "Ġrap": 2687,
      "Ġchee": 2688,
      "Ġsouls": 2689,
      "ianca": 2690,
      "Ġpleasure": 2691,
      "Ġbrave": 2692,
      "avamos": 2693,
      "Ġwithal": 2694,
      "Ġcourse": 2695,
      "Ġopin": 2696,
      "Ġpriv": 2697,
      "Ġtitle": 2698,
      "ĠfÃ³ra": 2699,
      "Ġsatisf": 2700,
      "DA": 2701,
      "DIO": 2702,
      "Es": 2703,
      "ech": 2704,
      "val": 2705,
      "you": 2706,
      "Ġty": 2707,
      "Ġlat": 2708,
      "Ġeither": 2709,
      "anÃ§a": 2710,
      "Ġgente": 2711,
      "oward": 2712,
      "Ġbecome": 2713,
      "eds": 2714,
      "etch": 2715,
      "Ġvinha": 2716,
      "Ġvict": 2717,
      "Ġforg": 2718,
      "Ġweak": 2719,
      "Ġsobre": 2720,
      "Ġlips": 2721,
      "anta": 2722,
      "ĠEnt": 2723,
      "Ġanci": 2724,
      "rust": 2725,
      "ĠSir": 2726,
      "Ġjest": 2727,
      "Ġalong": 2728,
      "aking": 2729,
      "feit": 2730,
      "Ġsair": 2731,
      "Ġproc": 2732,
      "Ġentrar": 2733,
      "Ġveiu": 2734,
      "AUDIO": 2735,
      "Ġplain": 2736,
      "Que": 2737,
      "Ġconsul": 2738,
      "Ġvezes": 2739,
      "Ġgrie": 2740,
      "CLAUDIO": 2741,
      "MIONE": 2742,
      "Ġchange": 2743,
      "ĠUma": 2744,
      "Ġvae": 2745,
      "Ġvirtu": 2746,
      "ĠNorfolk": 2747,
      "CLIFFORD": 2748,
      "Ġsuffer": 2749,
      "HERMIONE": 2750,
      "EDWARD": 2751,
      "Ha": 2752,
      "LORD": 2753,
      "Ye": 2754,
      "aÃ§Ãµes": 2755,
      "bal": 2756,
      "cher": 2757,
      "cont": 2758,
      "ey": 2759,
      "gare": 2760,
      "pes": 2761,
      "ull": 2762,
      "uro": 2763,
      "ufid": 2764,
      "Ġale": 2765,
      "Ġsk": 2766,
      "Ġsame": 2767,
      "Ġsick": 2768,
      "ĠmamÃ£e": 2769,
      "ready": 2770,
      "Ġwis": 2771,
      "Ġwall": 2772,
      "ero": 2773,
      "orre": 2774,
      "Ġpon": 2775,
      "Ġopp": 2776,
      "Ġfres": 2777,
      "Ġtook": 2778,
      "Ġgave": 2779,
      "irth": 2780,
      "Ġvia": 2781,
      "Ġforb": 2782,
      "Ġforget": 2783,
      "chio": 2784,
      "ilst": 2785,
      "ruchio": 2786,
      "Ġnecess": 2787,
      "Ġrich": 2788,
      "fere": 2789,
      "ĠPom": 2790,
      "Ġleis": 2791,
      "ĠBianca": 2792,
      "Ġthemselves": 2793,
      "ivesse": 2794,
      "Ġworse": 2795,
      "ranio": 2796,
      "Ġpoison": 2797,
      "Ġbreast": 2798,
      "Ġcheer": 2799,
      "Ġsenhora": 2800,
      "RANDA": 2801,
      "MIRANDA": 2802,
      "twas": 2803,
      "twere": 2804,
      "Ġpatience": 2805,
      "Ġorder": 2806,
      "Ġmerry": 2807,
      "Ġbocca": 2808,
      "ufidius": 2809,
      "HN": 2810,
      "Messenger": 2811,
      "OHN": 2812,
      "SA": 2813,
      "SON": 2814,
      "can": 2815,
      "ivers": 2816,
      "pan": 2817,
      "rink": 2818,
      "ught": 2819,
      "ĠÃī": 2820,
      "Ġtent": 2821,
      "Ġmouth": 2822,
      "Ġwed": 2823,
      "Ġbad": 2824,
      "Ġfour": 2825,
      "Ġlim": 2826,
      "Ġlab": 2827,
      "ancia": 2828,
      "ĠIf": 2829,
      "imos": 2830,
      "Ġquasi": 2831,
      "Ġmeio": 2832,
      "ador": 2833,
      "Ġquem": 2834,
      "alk": 2835,
      "Ġself": 2836,
      "Ġissue": 2837,
      "elle": 2838,
      "vern": 2839,
      "gues": 2840,
      "ĠSancha": 2841,
      "Ġalready": 2842,
      "Ġris": 2843,
      "rows": 2844,
      "ief": 2845,
      "Ġachei": 2846,
      "avel": 2847,
      "Ġseria": 2848,
      "Ġoffice": 2849,
      "Ġbook": 2850,
      "Being": 2851,
      "awd": 2852,
      "Ġtrem": 2853,
      "Ġmorte": 2854,
      "Ġvirtue": 2855,
      "Ġbattle": 2856,
      "Ġprincip": 2857,
      "Ġgiven": 2858,
      "Ġfurther": 2859,
      "Ġcerto": 2860,
      "aixo": 2861,
      "ĠHereford": 2862,
      "Ġmorning": 2863,
      "Servant": 2864,
      "Make": 2865,
      "Since": 2866,
      "ale": 2867,
      "aid": 2868,
      "eep": 2869,
      "gry": 2870,
      "iar": 2871,
      "iant": 2872,
      "mond": 2873,
      "nk": 2874,
      "ying": 2875,
      "hem": 2876,
      "rew": 2877,
      "rest": 2878,
      "Ġdentro": 2879,
      "has": 2880,
      "Ġwise": 2881,
      "orge": 2882,
      "Ġbom": 2883,
      "Ġburn": 2884,
      "esh": 2885,
      "Ġpay": 2886,
      "Ġfrown": 2887,
      "itas": 2888,
      "Ġlad": 2889,
      "anus": 2890,
      "Ġgro": 2891,
      "ats": 2892,
      "set": 2893,
      "cell": 2894,
      "Ġsoft": 2895,
      "ĠCab": 2896,
      "Ġsuit": 2897,
      "ĠAo": 2898,
      "elcome": 2899,
      "ĠSignior": 2900,
      "ichmond": 2901,
      "ĠPar": 2902,
      "Ġblack": 2903,
      "Ġfoe": 2904,
      "Ġsworn": 2905,
      "Ġgoes": 2906,
      "Ġworship": 2907,
      "Ġentra": 2908,
      "ĠTower": 2909,
      "pert": 2910,
      "Ġsons": 2911,
      "Ġfeast": 2912,
      "Ġparte": 2913,
      "Ġbetween": 2914,
      "Before": 2915,
      "Ġclar": 2916,
      "Ġobed": 2917,
      "Ġbegin": 2918,
      "Ġpropri": 2919,
      "Ġpessoas": 2920,
      "Ġsoldiers": 2921,
      "Ġvelho": 2922,
      "Ġquarrel": 2923,
      "Ġrequest": 2924,
      "ĠLucentio": 2925,
      "AS": 2926,
      "Call": 2927,
      "Must": 2928,
      "NT": 2929,
      "Sw": 2930,
      "fer": 2931,
      "mer": 2932,
      "oy": 2933,
      "pir": 2934,
      "oun": 2935,
      "inc": 2936,
      "rei": 2937,
      "Ġdin": 2938,
      "Ġdark": 2939,
      "Ġolha": 2940,
      "ites": 2941,
      "onge": 2942,
      "Ġthri": 2943,
      "ane": 2944,
      "ots": 2945,
      "owers": 2946,
      "Ġbei": 2947,
      "Ġmeth": 2948,
      "iras": 2949,
      "Ġhaver": 2950,
      "stand": 2951,
      "algu": 2952,
      "emos": 2953,
      "empt": 2954,
      "Ġsto": 2955,
      "Ġsol": 2956,
      "ĠCh": 2957,
      "Ġanno": 2958,
      "Ġloves": 2959,
      "gel": 2960,
      "Ġmundo": 2961,
      "ĠAufidius": 2962,
      "umes": 2963,
      "Ġemb": 2964,
      "Ġestar": 2965,
      "Ġbless": 2966,
      "Ġthence": 2967,
      "Ġservant": 2968,
      "ocaÃ§Ã£o": 2969,
      "Ġcaso": 2970,
      "CATES": 2971,
      "Ġrespect": 2972,
      "Ġalgumas": 2973,
      "Ġpresence": 2974,
      "Ġrecord": 2975,
      "Ġnosso": 2976,
      "Ġouvi": 2977,
      "Ġdefend": 2978,
      "used": 2979,
      "Ġreceive": 2980,
      "Unless": 2981,
      "Ġaffl": 2982,
      "Such": 2983,
      "Ġwounds": 2984,
      "Ġdangerous": 2985,
      "Alas": 2986,
      "Ġpreciso": 2987,
      "Because": 2988,
      "ĠrazÃ£o": 2989,
      "Ġsuccess": 2990,
      "garet": 2991,
      "CATESBY": 2992,
      "Ab": 2993,
      "JosÃ©": 2994,
      "LY": 2995,
      "hia": 2996,
      "iÃ£o": 2997,
      "that": 2998,
      "ting": 2999,
      "ures": 3000,
      "uca": 3001,
      "Ġaw": 3002,
      "Ġaquella": 3003,
      "Ġsla": 3004,
      "Ġsens": 3005,
      "Ġsigh": 3006,
      "Ġmil": 3007,
      "inas": 3008,
      "Ġdom": 3009,
      "Ġcert": 3010,
      "Ġbab": 3011,
      "Ġnunca": 3012,
      "Ġhot": 3013,
      "Ġgot": 3014,
      "sed": 3015,
      "cept": 3016,
      "Ġinj": 3017,
      "Ġhavia": 3018,
      "ete": 3019,
      "icÃ§Ã£o": 3020,
      "esta": 3021,
      "emn": 3022,
      "uras": 3023,
      "Whom": 3024,
      "Ġneither": 3025,
      "ĠAnt": 3026,
      "ĠGe": 3027,
      "ĠLond": 3028,
      "Ġbride": 3029,
      "ĠBapt": 3030,
      "ĠVols": 3031,
      "Ġacud": 3032,
      "iva": 3033,
      "log": 3034,
      "Ġwars": 3035,
      "como": 3036,
      "Ġimport": 3037,
      "Ġappre": 3038,
      "Ġmighty": 3039,
      "Ġvoice": 3040,
      "Ġdread": 3041,
      "Ġthrone": 3042,
      "gregado": 3043,
      "Ġperguntou": 3044,
      "Ġmodo": 3045,
      "Ġsecret": 3046,
      "Ġlivro": 3047,
      "Ġwater": 3048,
      "Ġmissa": 3049,
      "Ġspoke": 3050,
      "apae": 3051,
      "Ġbrief": 3052,
      "ĠCabral": 3053,
      "ĠLondon": 3054,
      "Both": 3055,
      "BIAN": 3056,
      "Est": 3057,
      "JOHN": 3058,
      "Lest": 3059,
      "Rome": 3060,
      "REY": 3061,
      "VocÃª": 3062,
      "Yes": 3063,
      "ib": 3064,
      "nas": 3065,
      "og": 3066,
      "ror": 3067,
      "ĠFor": 3068,
      "Ġign": 3069,
      "Ġdigo": 3070,
      "Ġcru": 3071,
      "Ġcara": 3072,
      "Ġbow": 3073,
      "enas": 3074,
      "eness": 3075,
      "Ġlament": 3076,
      "Ġhur": 3077,
      "Ġtown": 3078,
      "Ġgosto": 3079,
      "Ġoften": 3080,
      "Ġincl": 3081,
      "Ġhaving": 3082,
      "ided": 3083,
      "Ġvow": 3084,
      "igos": 3085,
      "usa": 3086,
      "pend": 3087,
      "Ġconce": 3088,
      "Ġsuas": 3089,
      "Ġsudd": 3090,
      "rum": 3091,
      "thy": 3092,
      "ĠRichmond": 3093,
      "Ġdishon": 3094,
      "avall": 3095,
      "ĠmanhÃ£": 3096,
      "umber": 3097,
      "Ġsafe": 3098,
      "Ġdese": 3099,
      "Ġusur": 3100,
      "Ġloved": 3101,
      "Ġexc": 3102,
      "Ġesqu": 3103,
      "Ġkings": 3104,
      "Ġspeech": 3105,
      "LIA": 3106,
      "agar": 3107,
      "ired": 3108,
      "mais": 3109,
      "Ġimper": 3110,
      "Ġparticular": 3111,
      "Ġflatter": 3112,
      "Ġclose": 3113,
      "Ġdizia": 3114,
      "essed": 3115,
      "ainted": 3116,
      "ĠMargaret": 3117,
      "BAL": 3118,
      "ledge": 3119,
      "Ġprincely": 3120,
      "BRA": 3121,
      "Ġmett": 3122,
      "Ġviol": 3123,
      "Ġtriump": 3124,
      "Ġseems": 3125,
      "Ġmortal": 3126,
      "Ġdeeds": 3127,
      "Ġchamber": 3128,
      "Ġbuy": 3129,
      "Ġeffect": 3130,
      "VERS": 3131,
      "Ġbitter": 3132,
      "Ġancient": 3133,
      "ĠParis": 3134,
      "ĠGeorge": 3135,
      "ĠBaptista": 3136,
      "BIANCA": 3137,
      "Ġsudden": 3138,
      "BOW": 3139,
      "Le": 3140,
      "Pe": 3141,
      "Pois": 3142,
      "Speak": 3143,
      "Welcome": 3144,
      "_,": 3145,
      "cri": 3146,
      "gora": 3147,
      "mu": 3148,
      "pen": 3149,
      "rt": 3150,
      "she": 3151,
      "vam": 3152,
      "ĠThou": 3153,
      "ĠThis": 3154,
      "Ġapert": 3155,
      "Ġsort": 3156,
      "Ġmot": 3157,
      "Ġdava": 3158,
      "Ġcoward": 3159,
      "Ġbawd": 3160,
      "Ġpit": 3161,
      "Ġfetch": 3162,
      "Ġlonge": 3163,
      "Ġgall": 3164,
      "atural": 3165,
      "Ġquiet": 3166,
      "Ġinn": 3167,
      "amento": 3168,
      "Ġseat": 3169,
      "Ġseja": 3170,
      "este": 3171,
      "urch": 3172,
      "Ġnov": 3173,
      "antag": 3174,
      "Ã©m": 3175,
      "Ġmuita": 3176,
      "ardon": 3177,
      "Ġneg": 3178,
      "Ġamor": 3179,
      "ĠSaint": 3180,
      "Ġknock": 3181,
      "Ġjan": 3182,
      "ĠGAU": 3183,
      "oney": 3184,
      "ĠLady": 3185,
      "Ġlead": 3186,
      "Ġperd": 3187,
      "Ġexplic": 3188,
      "Ġespe": 3189,
      "Ġkingdom": 3190,
      "ĠTambem": 3191,
      "ELBOW": 3192,
      "ontade": 3193,
      "Ġrage": 3194,
      "Ġmoon": 3195,
      "Ġconsci": 3196,
      "Ġheads": 3197,
      "Ġremed": 3198,
      "Ġscorn": 3199,
      "Ġwitness": 3200,
      "Ġpromise": 3201,
      "Ġfilha": 3202,
      "RIVERS": 3203,
      "Ġpatient": 3204,
      "Ġsimples": 3205,
      "ĠServant": 3206,
      "Ġvaliant": 3207,
      "Ġdeny": 3208,
      "Ġcross": 3209,
      "VIII": 3210,
      "Ġappear": 3211,
      "ĠIsab": 3212,
      "Ġmulher": 3213,
      "ĠGAUNT": 3214,
      "Ere": 3215,
      "Era": 3216,
      "GUE": 3217,
      "Hold": 3218,
      "TY": 3219,
      "den": 3220,
      "iest": 3221,
      "nown": 3222,
      "will": 3223,
      "xford": 3224,
      "Ġ(": 3225,
      "ĠKING": 3226,
      "Ġtor": 3227,
      "Ġaction": 3228,
      "Ġdrink": 3229,
      "Ġcle": 3230,
      "Ġcust": 3231,
      "Ġfra": 3232,
      "Ġfie": 3233,
      "Ġlack": 3234,
      "Ġeat": 3235,
      "Ġhou": 3236,
      "Ġthrow": 3237,
      "ata": 3238,
      "sei": 3239,
      "Ġbec": 3240,
      "iros": 3241,
      "Ġut": 3242,
      "ider": 3243,
      "Ġcompl": 3244,
      "Ġreb": 3245,
      "Ġforward": 3246,
      "Ġkins": 3247,
      "aving": 3248,
      "Their": 3249,
      "rib": 3250,
      "ĠMy": 3251,
      "Ġprithee": 3252,
      "aken": 3253,
      "ortens": 3254,
      "ĠPl": 3255,
      "Ġleast": 3256,
      "Ġwash": 3257,
      "ĠgraÃ§a": 3258,
      "Ġexpl": 3259,
      "ĠJo": 3260,
      "ĠTranio": 3261,
      "Ġcontr": 3262,
      "Ġprepare": 3263,
      "Ġminhas": 3264,
      "Ġoffer": 3265,
      "Ġboa": 3266,
      "ĠFoi": 3267,
      "Ġpapel": 3268,
      "Ġflesh": 3269,
      "itted": 3270,
      "Ġslave": 3271,
      "Ġprayers": 3272,
      "Ġbeggar": 3273,
      "TAGUE": 3274,
      "Ġcreio": 3275,
      "ĠAssim": 3276,
      "Ġcostume": 3277,
      "Ġcuid": 3278,
      "Ġnaturalmente": 3279,
      "ĠPetruchio": 3280,
      "Ġtribunes": 3281,
      "Ġminutos": 3282,
      "Ġponto": 3283,
      "Romeo": 3284,
      "ortensio": 3285,
      "!Â»": 3286,
      "Bes": 3287,
      "DI": 3288,
      "IEL": 3289,
      "Master": 3290,
      "Out": 3291,
      "RA": 3292,
      "fu": 3293,
      "fal": 3294,
      "host": 3295,
      "ires": 3296,
      "ohem": 3297,
      "rig": 3298,
      "vest": 3299,
      "yr": 3300,
      "Ã²": 3301,
      "Ġach": 3302,
      "Ġmid": 3303,
      "Ġdur": 3304,
      "Ġwa": 3305,
      "Ġpain": 3306,
      "Ġpol": 3307,
      "Ġnay": 3308,
      "onot": 3309,
      "Ġeas": 3310,
      "Ġhide": 3311,
      "Ġthither": 3312,
      "athar": 3313,
      "inger": 3314,
      "raw": 3315,
      "Ġbeast": 3316,
      "iria": 3317,
      "ley": 3318,
      "ĠvocaÃ§Ã£o": 3319,
      "Ġhist": 3320,
      "term": 3321,
      "Ã§ar": 3322,
      "riu": 3323,
      "ries": 3324,
      "essas": 3325,
      "pey": 3326,
      "Ġconvers": 3327,
      "thumber": 3328,
      "ĠAl": 3329,
      "Ġamiga": 3330,
      "Ġpros": 3331,
      "Ġalmost": 3332,
      "aked": 3333,
      "feito": 3334,
      "Ġaggregado": 3335,
      "Ġdesde": 3336,
      "ivamente": 3337,
      "Ġcoll": 3338,
      "clam": 3339,
      "iram": 3340,
      "Ġscar": 3341,
      "Ġcorre": 3342,
      "bles": 3343,
      "Ġparece": 3344,
      "Ġdepart": 3345,
      "Ġcabell": 3346,
      "Ġpossess": 3347,
      "Ġpresently": 3348,
      "Ġsmall": 3349,
      "Ġfaults": 3350,
      "while": 3351,
      "Ġsubjects": 3352,
      "Ġconclu": 3353,
      "inguem": 3354,
      "Yea": 3355,
      "Ġslaughter": 3356,
      "Ġinnoc": 3357,
      "onotario": 3358,
      "atharina": 3359,
      "thumberland": 3360,
      "Af": 3361,
      "GI": 3362,
      "IV": 3363,
      "RGI": 3364,
      "Um": 3365,
      "bit": 3366,
      "cido": 3367,
      "ding": 3368,
      "ga": 3369,
      "hind": 3370,
      "lish": 3371,
      "mar": 3372,
      "miss": 3373,
      "pass": 3374,
      "zen": 3375,
      "ĠAnd": 3376,
      "Ġtear": 3377,
      "Ġmand": 3378,
      "ines": 3379,
      "Ġdorm": 3380,
      "Ġwert": 3381,
      "isto": 3382,
      "Ġcir": 3383,
      "Ġced": 3384,
      "Ġcart": 3385,
      "Ġbase": 3386,
      "Ġbirth": 3387,
      "Ġpun": 3388,
      "Ġfig": 3389,
      "Ġfill": 3390,
      "Ġfond": 3391,
      "Ġfine": 3392,
      "arl": 3393,
      "arn": 3394,
      "enho": 3395,
      "ities": 3396,
      "Ġlado": 3397,
      "Ġhora": 3398,
      "atal": 3399,
      "ingly": 3400,
      "Ġmezes": 3401,
      "Ġur": 3402,
      "ident": 3403,
      "ement": 3404,
      "empl": 3405,
      "urs": 3406,
      "Ġstru": 3407,
      "usÃ£o": 3408,
      "Ġliving": 3409,
      "Ġconst": 3410,
      "rue": 3411,
      "though": 3412,
      "Ġneck": 3413,
      "ĠMand": 3414,
      "Ġrid": 3415,
      "Ġgoodly": 3416,
      "ĠGre": 3417,
      "ĠGREY": 3418,
      "Ġwhence": 3419,
      "Ġsaiu": 3420,
      "Ġhearing": 3421,
      "Ġperform": 3422,
      "Ġgovern": 3423,
      "ĠJÃ¡": 3424,
      "perate": 3425,
      "Ġtrump": 3426,
      "Ġoffend": 3427,
      "Ġfalava": 3428,
      "issimo": 3429,
      "inted": 3430,
      "lock": 3431,
      "assem": 3432,
      "Ġcousas": 3433,
      "cles": 3434,
      "Stay": 3435,
      "Stand": 3436,
      "PERDI": 3437,
      "Ġacabou": 3438,
      "Ġlivros": 3439,
      "VIRGI": 3440,
      "Ġquickly": 3441,
      "Ġtrazia": 3442,
      "Ġdamn": 3443,
      "Ġrespondeu": 3444,
      "MONTAGUE": 3445,
      "Ġtrans": 3446,
      "ourable": 3447,
      "ĠPaul": 3448,
      "Escobar": 3449,
      "Ġvirtuous": 3450,
      "Ġcontrario": 3451,
      "ohemia": 3452,
      "PERDITA": 3453,
      "VIRGILIA": 3454,
      "Doth": 3455,
      "Eu": 3456,
      "IX": 3457,
      "Pl": 3458,
      "Per": 3459,
      "PAR": 3460,
      "SET": 3461,
      "SLY": 3462,
      "act": 3463,
      "but": 3464,
      "das": 3465,
      "fic": 3466,
      "pos": 3467,
      "ric": 3468,
      "your": 3469,
      "Ġay": 3470,
      "Ġawhile": 3471,
      "Ġmild": 3472,
      "ouv": 3473,
      "inar": 3474,
      "inhos": 3475,
      "Ġwild": 3476,
      "oro": 3477,
      "Ġcertain": 3478,
      "Ġbig": 3479,
      "esar": 3480,
      "Ġfier": 3481,
      "Ġninguem": 3482,
      "Ġlar": 3483,
      "Ġlust": 3484,
      "ony": 3485,
      "Ġyear": 3486,
      "ano": 3487,
      "quanto": 3488,
      "ote": 3489,
      "Ġquest": 3490,
      "eta": 3491,
      "Ġforam": 3492,
      "tern": 3493,
      "antar": 3494,
      "antos": 3495,
      "Ġangry": 3496,
      "oler": 3497,
      "Think": 3498,
      "Ġknee": 3499,
      "ĠOxford": 3500,
      "ize": 3501,
      "Ġblows": 3502,
      "cias": 3503,
      "Ġproceed": 3504,
      "ally": 3505,
      "Ġenf": 3506,
      "ĠTal": 3507,
      "lack": 3508,
      "Ġhadst": 3509,
      "Ġoffence": 3510,
      "Ġaffection": 3511,
      "Ġfug": 3512,
      "then": 3513,
      "force": 3514,
      "Ġmatch": 3515,
      "Ġsubst": 3516,
      "bling": 3517,
      "Ġslew": 3518,
      "Ġpromessa": 3519,
      "Ġpedir": 3520,
      "Ġglad": 3521,
      "IANA": 3522,
      "Ġlawful": 3523,
      "Ġchance": 3524,
      "Ġficar": 3525,
      "Ġweeping": 3526,
      "Ġsoldier": 3527,
      "MARIANA": 3528,
      "Ġdeserved": 3529,
      "Ġexecution": 3530,
      "ĠCoriolanus": 3531,
      "Ġguilty": 3532,
      "Ġpretty": 3533,
      "ĠPompey": 3534,
      "Ġignor": 3535,
      "avallos": 3536,
      "Ġusurp": 3537,
      "Ġesquec": 3538,
      "Peace": 3539,
      "fully": 3540,
      "Am": 3541,
      "En": 3542,
      "Fa": 3543,
      "Int": 3544,
      "Mar": 3545,
      "Meth": 3546,
      "Ped": 3547,
      "VINCENTIO": 3548,
      "ao": 3549,
      "cum": 3550,
      "ique": 3551,
      "minha": 3552,
      "ny": 3553,
      "volt": 3554,
      "Ġsou": 3555,
      "Ġsan": 3556,
      "Ġdif": 3557,
      "Ġce": 3558,
      "ĠcÃ¡": 3559,
      "Ġcorn": 3560,
      "Ġcred": 3561,
      "Ġpet": 3562,
      "Ġfled": 3563,
      "Ġlau": 3564,
      "asons": 3565,
      "any": 3566,
      "atac": 3567,
      "Ġdeb": 3568,
      "Ġmeasure": 3569,
      "irl": 3570,
      "eto": 3571,
      "eter": 3572,
      "icia": 3573,
      "Ġvontade": 3574,
      "Ġreign": 3575,
      "Ġforsw": 3576,
      "Ġdog": 3577,
      "Ġdoom": 3578,
      "Ġnova": 3579,
      "ĠCon": 3580,
      "ĠCap": 3581,
      "ulos": 3582,
      "rupt": 3583,
      "While": 3584,
      "Ġourselves": 3585,
      "Ġras": 3586,
      "ĠPois": 3587,
      "Ġestud": 3588,
      "Ġblow": 3589,
      "Ġdesp": 3590,
      "cial": 3591,
      "Ġunk": 3592,
      "Ġwouldst": 3593,
      "Ġenjo": 3594,
      "Ġletters": 3595,
      "iste": 3596,
      "Ġworst": 3597,
      "Ġvelha": 3598,
      "cover": 3599,
      "lace": 3600,
      "Ġmarch": 3601,
      "III": 3602,
      "Ġspeaks": 3603,
      "Ġpassar": 3604,
      "ighb": 3605,
      "Ġapenas": 3606,
      "ĠKatharina": 3607,
      "Ġgreater": 3608,
      "Ġwrit": 3609,
      "ians": 3610,
      "Ġsense": 3611,
      "Ġgross": 3612,
      "Ġshows": 3613,
      "pair": 3614,
      "Ġpubl": 3615,
      "ĠEnglish": 3616,
      "conf": 3617,
      "Ġcapt": 3618,
      "Ġcama": 3619,
      "Ġbanishment": 3620,
      "remio": 3621,
      "ĠComo": 3622,
      "Ġcondemn": 3623,
      "Ġkneel": 3624,
      "Ġbenef": 3625,
      "Ġtrouble": 3626,
      "Ġliberty": 3627,
      "Ġclouds": 3628,
      "Ġbreathe": 3629,
      "Ġforbid": 3630,
      "Ġleisure": 3631,
      "Ġladies": 3632,
      "ounter": 3633,
      "ĠChrist": 3634,
      "rumio": 3635,
      "antagen": 3636,
      "ĠIsabel": 3637,
      "PARIS": 3638,
      "atacavallos": 3639,
      "!--": 3640,
      ":'": 3641,
      "Ex": 3642,
      "house": 3643,
      "pto": 3644,
      "rous": 3645,
      "Ġiam": 3646,
      "Ġtive": 3647,
      "Ġmour": 3648,
      "Ġmorrow": 3649,
      "Ġdry": 3650,
      "Ġwon": 3651,
      "nda": 3652,
      "Ġble": 3653,
      "Ġodd": 3654,
      "Ġfru": 3655,
      "Ġfec": 3656,
      "iter": 3657,
      "Ġlist": 3658,
      "Ġlaid": 3659,
      "Ġegre": 3660,
      "ang": 3661,
      "Ġheld": 3662,
      "Ġdei": 3663,
      "Ġdeterm": 3664,
      "Ġbehind": 3665,
      "sto": 3666,
      "Ġvar": 3667,
      "Ġvain": 3668,
      "Ġseal": 3669,
      "Ġnote": 3670,
      "Ġaside": 3671,
      "urso": 3672,
      "Ġstop": 3673,
      "Ġnoise": 3674,
      "Ġlived": 3675,
      "olog": 3676,
      "Ġshad": 3677,
      "Too": 3678,
      "ĠMerc": 3679,
      "....": 3680,
      "Ġrough": 3681,
      "Ġembra": 3682,
      "ĠBohemia": 3683,
      "Ġshepherd": 3684,
      "Ġagra": 3685,
      "Ġeng": 3686,
      "Ġesse": 3687,
      "Ġesque": 3688,
      "Ġletter": 3689,
      "Ġabro": 3690,
      "Ġabove": 3691,
      "ounds": 3692,
      "Ġchurch": 3693,
      "aught": 3694,
      "ĠFl": 3695,
      "Ġrob": 3696,
      "Quando": 3697,
      "comm": 3698,
      "Ġdizendo": 3699,
      "Ġjoin": 3700,
      "Ġlonger": 3701,
      "Ġremain": 3702,
      "Ġescri": 3703,
      "Ġsenti": 3704,
      "Ġdevia": 3705,
      "Ġwomb": 3706,
      "Ġaccord": 3707,
      "Ġsabe": 3708,
      "Ġsabia": 3709,
      "Ġretr": 3710,
      "Ġneeds": 3711,
      "Ġsecond": 3712,
      "Ġdispatch": 3713,
      "Ġreflex": 3714,
      "ĠEuro": 3715,
      "Ġprisoner": 3716,
      "Ġchoose": 3717,
      "undred": 3718,
      "ĠXI": 3719,
      "Ġdemand": 3720,
      "Ġgolden": 3721,
      "Ġfamilia": 3722,
      "Ġpiece": 3723,
      "ĠEntÃ£o": 3724,
      "Ġfresh": 3725,
      "Ġcruel": 3726,
      "Ġdishonour": 3727,
      "Ġbecause": 3728,
      "Ġprosper": 3729,
      "antagenet": 3730,
      "Cont": 3731,
      "DOR": 3732,
      "EW": 3733,
      "Ent": 3734,
      "Hark": 3735,
      "LAR": 3736,
      "Me": 3737,
      "TIUS": 3738,
      "Uma": 3739,
      "cil": 3740,
      "gos": 3741,
      "hy": 3742,
      "him": 3743,
      "ipp": 3744,
      "ob": 3745,
      "pet": 3746,
      "port": 3747,
      "tal": 3748,
      "uc": 3749,
      "under": 3750,
      "ulet": 3751,
      "zas": 3752,
      "Ġ1": 3753,
      "Ġsaint": 3754,
      "Ġmut": 3755,
      "inius": 3756,
      "Ġdign": 3757,
      "Ġdrown": 3758,
      "Ġwalk": 3759,
      "erle": 3760,
      "Ġcitizens": 3761,
      "Ġbroke": 3762,
      "Ġpud": 3763,
      "Ġfre": 3764,
      "Ġfive": 3765,
      "Ġfiquei": 3766,
      "enÃ§Ã£o": 3767,
      "itou": 3768,
      "Ġlan": 3769,
      "Ġlow": 3770,
      "Ġlag": 3771,
      "Ġegu": 3772,
      "Ġedade": 3773,
      "Ġhundred": 3774,
      "Ġthreat": 3775,
      "anha": 3776,
      "vey": 3777,
      "ated": 3778,
      "Ġoft": 3779,
      "Ġbend": 3780,
      "Ġhap": 3781,
      "ety": 3782,
      "ĠĠĠ": 3783,
      "Ġvou": 3784,
      "Ġviv": 3785,
      "Ġviu": 3786,
      "Ġcommend": 3787,
      "Ġrevere": 3788,
      "igas": 3789,
      "Ġyourselves": 3790,
      "Ġstood": 3791,
      "Ġstain": 3792,
      "ARIEL": 3793,
      "ĠEll": 3794,
      "Ġmaior": 3795,
      "osta": 3796,
      "ards": 3797,
      "ĠSt": 3798,
      "Ġpride": 3799,
      "arer": 3800,
      "Ġrot": 3801,
      "ĠGaunt": 3802,
      "ĠGremio": 3803,
      "ĠPer": 3804,
      "ieu": 3805,
      "ĠLet": 3806,
      "ĠLEW": 3807,
      "ĠsaÃŃ": 3808,
      "Ġblessed": 3809,
      "ĠHortensio": 3810,
      "Ġshed": 3811,
      "ĠVi": 3812,
      "Ġdesc": 3813,
      "Ġdesped": 3814,
      "Ġdesperate": 3815,
      "Ġswift": 3816,
      "ĠcomeÃ§": 3817,
      "istress": 3818,
      "ĠNa": 3819,
      "ĠNow": 3820,
      "Ġentend": 3821,
      "Ġentertain": 3822,
      "Ġcontar": 3823,
      "Ġprecious": 3824,
      "Ġadd": 3825,
      "ĠWatch": 3826,
      "iled": 3827,
      "Ġplant": 3828,
      "ĠmoÃ§a": 3829,
      "Ġrepent": 3830,
      "lease": 3831,
      "Ġslander": 3832,
      "Ġobey": 3833,
      "Ġbears": 3834,
      "Ġsentence": 3835,
      "Ġwoes": 3836,
      "Ġnossas": 3837,
      "Sirrah": 3838,
      "ators": 3839,
      "Ġdouble": 3840,
      "Ġglory": 3841,
      "atesby": 3842,
      "Ġdeste": 3843,
      "Ġlands": 3844,
      "Ġtenho": 3845,
      "Ġsteel": 3846,
      "Ġbones": 3847,
      "Ġprofess": 3848,
      "Ġsusp": 3849,
      "ĠNorthumberland": 3850,
      "Ġdrunk": 3851,
      "Ġvenge": 3852,
      "Ġtowards": 3853,
      "Ġknees": 3854,
      "Ġmemoria": 3855,
      "Unto": 3856,
      "Ġlatim": 3857,
      "Ġvictory": 3858,
      "Ġforgot": 3859,
      "Ġproclaim": 3860,
      "Ġwisdom": 3861,
      "Sweet": 3862,
      "Ġconscience": 3863,
      "Ġkinsman": 3864,
      "ĠCapulet": 3865,
      "Ġegreja": 3866,
      "LARTIUS": 3867,
      "ĠLEWIS": 3868,
      "ĠWatchman": 3869,
      ":--": 3870,
      ";'": 3871,
      "Bel": 3872,
      "Could": 3873,
      "Hear": 3874,
      "MP": 3875,
      "Pardon": 3876,
      "RTIS": 3877,
      "bray": 3878,
      "bury": 3879,
      "cio": 3880,
      "hn": 3881,
      "natural": 3882,
      "ron": 3883,
      "tem": 3884,
      "ub": 3885,
      "vi": 3886,
      "xe": 3887,
      "head": 3888,
      "Ġsour": 3889,
      "Ġsco": 3890,
      "Ġmount": 3891,
      "Ġmoney": 3892,
      "read": 3893,
      "Ġdied": 3894,
      "Ġcump": 3895,
      "Ġbot": 3896,
      "Ġple": 3897,
      "Ġom": 3898,
      "Ġfought": 3899,
      "Ġnar": 3900,
      "ited": 3901,
      "itei": 3902,
      "Ġlamb": 3903,
      "ones": 3904,
      "Ġeld": 3905,
      "osition": 3906,
      "vell": 3907,
      "othe": 3908,
      "Ġhealth": 3909,
      "owbray": 3910,
      "irar": 3911,
      "entes": 3912,
      "Ġhair": 3913,
      "idades": 3914,
      "icas": 3915,
      "Ġvest": 3916,
      "Ġvesp": 3917,
      "ĠforÃ§a": 3918,
      "Ġdoing": 3919,
      "Ġstud": 3920,
      "ĠCX": 3921,
      "ĠEarl": 3922,
      "ility": 3923,
      "ellas": 3924,
      "iful": 3925,
      "Ġaman": 3926,
      "ĠMaster": 3927,
      "Ġship": 3928,
      "Ġalive": 3929,
      "Ġran": 3930,
      "Ġmanner": 3931,
      "ETER": 3932,
      "umerle": 3933,
      "ĠGo": 3934,
      "ĠGrumio": 3935,
      "Ġlordship": 3936,
      "ĠHa": 3937,
      "Ġdespair": 3938,
      "Ġunf": 3939,
      "Ġknowledge": 3940,
      "ivos": 3941,
      "Ġpecc": 3942,
      "vesse": 3943,
      "Ġfew": 3944,
      "Within": 3945,
      "cape": 3946,
      "Ġmoved": 3947,
      "Ġassist": 3948,
      "ways": 3949,
      "redor": 3950,
      "Ġwarm": 3951,
      "Ġtrabal": 3952,
      "acle": 3953,
      "comes": 3954,
      "Ġhonours": 3955,
      "ations": 3956,
      "Ġdeadly": 3957,
      "ances": 3958,
      "Ġdelles": 3959,
      "Ġkept": 3960,
      "Ġarmy": 3961,
      "Ġguest": 3962,
      "Ġguess": 3963,
      "Ġpromised": 3964,
      "Ġtaes": 3965,
      "Ġmiser": 3966,
      "CURTIS": 3967,
      "Como": 3968,
      "which": 3969,
      "chool": 3970,
      "Ġprotonotario": 3971,
      "Ġfeliz": 3972,
      "Ġcontinuou": 3973,
      "Ġexpress": 3974,
      "Ġfavour": 3975,
      "Ġauthor": 3976,
      "Ġwretched": 3977,
      "Ġescrever": 3978,
      "Ġcheeks": 3979,
      "SAMP": 3980,
      "Ġlabour": 3981,
      "eeper": 3982,
      "Ġmethinks": 3983,
      "Ġjanella": 3984,
      "Ġstruck": 3985,
      "Faith": 3986,
      "Pedant": 3987,
      "Ġvespera": 3988,
      "SAMPSON": 3989,
      "'re": 3990,
      "BU": 3991,
      "Br": 3992,
      "CX": 3993,
      "Citizens": 3994,
      "EX": 3995,
      "Em": 3996,
      "Either": 3997,
      "IGON": 3998,
      "Sim": 3999,
      "born": 4000,
      "cos": 4001,
      "diz": 4002,
      "fim": 4003,
      "faz": 4004,
      "gg": 4005,
      "good": 4006,
      "gment": 4007,
      "hou": 4008,
      "just": 4009,
      "ler": 4010,
      "mal": 4011,
      "oor": 4012,
      "uff": 4013,
      "vis": 4014,
      "vol": 4015,
      "ĠWhy": 4016,
      "Ġtry": 4017,
      "Ġaid": 4018,
      "heiro": 4019,
      "Ġdance": 4020,
      "orious": 4021,
      "isp": 4022,
      "Ġcried": 4023,
      "esper": 4024,
      "Ġpente": 4025,
      "Ġposto": 4026,
      "Ġol": 4027,
      "Ġfin": 4028,
      "Ġfica": 4029,
      "aring": 4030,
      "enÃ§a": 4031,
      "Ġlod": 4032,
      "asion": 4033,
      "Ġed": 4034,
      "omen": 4035,
      "anÃ§as": 4036,
      "Ġga": 4037,
      "Ġgirl": 4038,
      "att": 4039,
      "Ġandar": 4040,
      "Ġquoth": 4041,
      "Ġmere": 4042,
      "Ġmedo": 4043,
      "alm": 4044,
      "ett": 4045,
      "utio": 4046,
      "amp": 4047,
      "icious": 4048,
      "Ġvie": 4049,
      "Ġvag": 4050,
      "Ġsever": 4051,
      "Ġcomb": 4052,
      "Ġremo": 4053,
      "Ġforce": 4054,
      "Ġliest": 4055,
      "Ġconv": 4056,
      "ello": 4057,
      "Ġsuper": 4058,
      "Ġshake": 4059,
      "Ġwhite": 4060,
      "Ġherself": 4061,
      "Ġamong": 4062,
      "Ġminister": 4063,
      "ctor": 4064,
      "ĠMinha": 4065,
      "ĠMatacavallos": 4066,
      "ĠMowbray": 4067,
      "Ġsho": 4068,
      "aste": 4069,
      "Ġalt": 4070,
      "Ġalto": 4071,
      "Ġembar": 4072,
      "Ġwhether": 4073,
      "Ġleitor": 4074,
      "ĠHow": 4075,
      "ĠVocÃª": 4076,
      "othing": 4077,
      "eias": 4078,
      "Ġcontrar": 4079,
      "Ġchor": 4080,
      "Ġspent": 4081,
      "Ġimm": 4082,
      "Ġhonourable": 4083,
      "Ġaffect": 4084,
      "Ġrock": 4085,
      "ĠWill": 4086,
      "Ġbrothers": 4087,
      "Ġearly": 4088,
      "Ġflowers": 4089,
      "LEY": 4090,
      "Ġcheg": 4091,
      "Ġcalls": 4092,
      "Ġdellas": 4093,
      "Ġintend": 4094,
      "Ġinteira": 4095,
      "Ġcorredor": 4096,
      "Ġaccount": 4097,
      "Ġparent": 4098,
      "Ġmasters": 4099,
      "Ġkindred": 4100,
      "Ġprophe": 4101,
      "Ġcharity": 4102,
      "Ġteach": 4103,
      "Ġhumble": 4104,
      "Ġreceb": 4105,
      "ewis": 4106,
      "rimas": 4107,
      "Ġfoolish": 4108,
      "Ġpriest": 4109,
      "Ġsteal": 4110,
      "Ġvalour": 4111,
      "Ġsegundo": 4112,
      "Ġunderstand": 4113,
      "Ġdreams": 4114,
      "Ġgestos": 4115,
      "Ġgreet": 4116,
      "Ġquarto": 4117,
      "paraÃ§Ã£o": 4118,
      "asiÃ£o": 4119,
      "ANTIGON": 4120,
      "Ġqualquer": 4121,
      "ceived": 4122,
      "Ġencounter": 4123,
      "Ġabsol": 4124,
      "imentos": 4125,
      "Ġofficer": 4126,
      "change": 4127,
      "Ġwretch": 4128,
      "Ġgrandes": 4129,
      "Ġnenhuma": 4130,
      "Ġsummer": 4131,
      "Ġclaro": 4132,
      "Ġdoming": 4133,
      "Ġtriumph": 4134,
      "Ã²r": 4135,
      "ĠManduca": 4136,
      "ĠEuropa": 4137,
      "BURY": 4138,
      "ANTIGONUS": 4139,
      "Bet": 4140,
      "Fear": 4141,
      "Made": 4142,
      "Mine": 4143,
      "Ne": 4144,
      "TCLIFF": 4145,
      "True": 4146,
      "bras": 4147,
      "cava": 4148,
      "fall": 4149,
      "gem": 4150,
      "mes": 4151,
      "mon": 4152,
      "more": 4153,
      "ners": 4154,
      "ts": 4155,
      "xto": 4156,
      "Ġessa": 4157,
      "Ġade": 4158,
      "heart": 4159,
      "Ġsy": 4160,
      "Ġsix": 4161,
      "Ġmus": 4162,
      "ining": 4163,
      "Ġdwell": 4164,
      "Ġwail": 4165,
      "ern": 4166,
      "orthy": 4167,
      "isc": 4168,
      "Ġcada": 4169,
      "Ġbond": 4170,
      "Ġpasse": 4171,
      "Ġfol": 4172,
      "Ġfran": 4173,
      "Ġfaint": 4174,
      "Ġnome": 4175,
      "ene": 4176,
      "osa": 4177,
      "Ġhol": 4178,
      "Ġhun": 4179,
      "Ġthro": 4180,
      "qual": 4181,
      "oto": 4182,
      "Ġgent": 4183,
      "sequ": 4184,
      "leep": 4185,
      "edom": 4186,
      "eding": 4187,
      "alous": 4188,
      "Ġseven": 4189,
      "Ġrecom": 4190,
      "Ġweary": 4191,
      "roy": 4192,
      "Ġstone": 4193,
      "Ġstars": 4194,
      "Ġconj": 4195,
      "very": 4196,
      "Ġanon": 4197,
      "ify": 4198,
      "Ġbutcher": 4199,
      "app": 4200,
      "Ġmud": 4201,
      "Ġfale": 4202,
      "Ġneighb": 4203,
      "Ġours": 4204,
      "ĠRoman": 4205,
      "Ġjura": 4206,
      "Ġjantar": 4207,
      "Ġalter": 4208,
      "Ġrise": 4209,
      "ĠLe": 4210,
      "ĠLewis": 4211,
      "Ġsaud": 4212,
      "Ġblame": 4213,
      "Ġbright": 4214,
      "ciam": 4215,
      "Ġpernas": 4216,
      "Ġthereof": 4217,
      "Ġexam": 4218,
      "Ġgoing": 4219,
      "Ġentrou": 4220,
      "Ġvex": 4221,
      "ĠTinha": 4222,
      "Ġado": 4223,
      "Ġparty": 4224,
      "Ġpack": 4225,
      "Ġthinks": 4226,
      "intal": 4227,
      "Ġpasso": 4228,
      "Ġterra": 4229,
      "Ġconfirm": 4230,
      "Ġchast": 4231,
      "Ġothers": 4232,
      "Ġinte": 4233,
      "Ġfazia": 4234,
      "Ġouvir": 4235,
      "Ġkindness": 4236,
      "Ġbids": 4237,
      "Ġposso": 4238,
      "Ġglass": 4239,
      "Ġseminar": 4240,
      "Ġficou": 4241,
      "teen": 4242,
      "Ġcapaz": 4243,
      "Ġseguinte": 4244,
      "Ġcrave": 4245,
      "Twas": 4246,
      "Ġmonth": 4247,
      "Ġyea": 4248,
      "Ġwinter": 4249,
      "Ġprovavel": 4250,
      "Ġextrem": 4251,
      "Ġmedic": 4252,
      "Ġachava": 4253,
      "Ġidle": 4254,
      "Ġjudge": 4255,
      "Ġnenhum": 4256,
      "Ġverso": 4257,
      "Ġprivate": 4258,
      "Ġsatisfied": 4259,
      "Ġwalls": 4260,
      "Ġprincipio": 4261,
      "Ġbeij": 4262,
      "ĠVolsces": 4263,
      "ĠJohn": 4264,
      "RATCLIFF": 4265,
      "Ġscarce": 4266,
      "Ġcabellos": 4267,
      "Ġlaugh": 4268,
      "Ġabroad": 4269,
      "Ġretrato": 4270,
      "Ġpudesse": 4271,
      "Ġvengeance": 4272,
      "ĠamanhÃ£": 4273,
      "Ġview": 4274,
      "._": 4275,
      "Bid": 4276,
      "BIS": 4277,
      "Fie": 4278,
      "Gentle": 4279,
      "HOP": 4280,
      "Never": 4281,
      "Os": 4282,
      "Signior": 4283,
      "Under": 4284,
      "cor": 4285,
      "cab": 4286,
      "dle": 4287,
      "met": 4288,
      "ointed": 4289,
      "part": 4290,
      "sc": 4291,
      "shall": 4292,
      "whe": 4293,
      "woman": 4294,
      "wixt": 4295,
      "ĠWe": 4296,
      "Ġtu": 4297,
      "Ġtest": 4298,
      "Ġavo": 4299,
      "ounce": 4300,
      "incentio": 4301,
      "Ġdig": 4302,
      "Ġdiff": 4303,
      "have": 4304,
      "hant": 4305,
      "Ġwre": 4306,
      "Ġwench": 4307,
      "isa": 4308,
      "Ġbird": 4309,
      "Ġpil": 4310,
      "Ġpint": 4311,
      "Ġpapae": 4312,
      "Ġfirm": 4313,
      "llen": 4314,
      "Ġlest": 4315,
      "Ġlend": 4316,
      "Ġelog": 4317,
      "omer": 4318,
      "omes": 4319,
      "omas": 4320,
      "ĠIn": 4321,
      "ating": 4322,
      "Ġdeal": 4323,
      "rav": 4324,
      "Ġquite": 4325,
      "Ġbegu": 4326,
      "Ġmel": 4327,
      "ents": 4328,
      "utland": 4329,
      "icidade": 4330,
      "Ġvent": 4331,
      "ĠvÃ¡": 4332,
      "Ġvile": 4333,
      "Ġvista": 4334,
      "aven": 4335,
      "riar": 4336,
      "ĠCa": 4337,
      "ĠCapit": 4338,
      "antua": 4339,
      "Ġconvey": 4340,
      "Ġmag": 4341,
      "ostol": 4342,
      "Ġfaire": 4343,
      "Whilst": 4344,
      "resse": 4345,
      "ĠAgora": 4346,
      "Ġamiz": 4347,
      "ĠMantua": 4348,
      "ĠRutland": 4349,
      "Ġshrew": 4350,
      "ared": 4351,
      "arest": 4352,
      "deu": 4353,
      "ANLEY": 4354,
      "ortun": 4355,
      "Ġsaf": 4356,
      "Ġlevant": 4357,
      "Ġarri": 4358,
      "ĠBarn": 4359,
      "ĠVer": 4360,
      "ĠVincentio": 4361,
      "Ġacqu": 4362,
      "Ġfoes": 4363,
      "Ġperto": 4364,
      "Ġprovost": 4365,
      "Ġexcell": 4366,
      "Ġexempl": 4367,
      "Ġellas": 4368,
      "ĠNem": 4369,
      "Ġmayst": 4370,
      "poz": 4371,
      "ĠTudo": 4372,
      "law": 4373,
      "Ġsport": 4374,
      "IST": 4375,
      "Ġtruly": 4376,
      "Ġboot": 4377,
      "Ġafford": 4378,
      "Ġroot": 4379,
      "mento": 4380,
      "Ġwherefore": 4381,
      "Ġflower": 4382,
      "Ġcover": 4383,
      "ĠbraÃ§os": 4384,
      "Ġcorse": 4385,
      "Ġtreason": 4386,
      "Ġsabb": 4387,
      "Ġparecia": 4388,
      "Ġrecon": 4389,
      "rench": 4390,
      "Ġcurios": 4391,
      "Ġdeputy": 4392,
      "Ġinstantes": 4393,
      "Ġtrial": 4394,
      "Ġpossivel": 4395,
      "Ġhoras": 4396,
      "Ġdefun": 4397,
      "Ġchanged": 4398,
      "Ġhumour": 4399,
      "Ġvale": 4400,
      "Ġpersu": 4401,
      "Ġreflect": 4402,
      "Ġdiscurso": 4403,
      "Ġswords": 4404,
      "Ġcondition": 4405,
      "Ġformer": 4406,
      "Ġprote": 4407,
      "Ġphys": 4408,
      "ĠoccasiÃ£o": 4409,
      "Ġfelicidade": 4410,
      "Ġeffeito": 4411,
      "Ġevil": 4412,
      "Ġimagina": 4413,
      "Ġrelig": 4414,
      "Ġjudgment": 4415,
      "encio": 4416,
      "ĠPrince": 4417,
      "Ġrapaz": 4418,
      "Ġtyrant": 4419,
      "Ġaleg": 4420,
      "Ġreceived": 4421,
      "Ġdesejo": 4422,
      "Ġexcuse": 4423,
      "BALT": 4424,
      "TYBALT": 4425,
      "Ġeasy": 4426,
      "After": 4427,
      "Ġcircum": 4428,
      "Ġfruit": 4429,
      "ĠMercutio": 4430,
      "Ġlagrimas": 4431,
      "Ġpeccado": 4432,
      "Ġdomingo": 4433,
      "BISHOP": 4434,
      "'?": 4435,
      "AL": 4436,
      "Alack": 4437,
      "Des": 4438,
      "Ho": 4439,
      "KEN": 4440,
      "MamÃ£e": 4441,
      "Pre": 4442,
      "Put": 4443,
      "Tut": 4444,
      "ban": 4445,
      "bers": 4446,
      "cy": 4447,
      "cara": 4448,
      "dor": 4449,
      "ek": 4450,
      "eza": 4451,
      "fl": 4452,
      "iumes": 4453,
      "nes": 4454,
      "rir": 4455,
      "rate": 4456,
      "rison": 4457,
      "sent": 4458,
      "ui": 4459,
      "vido": 4460,
      "Ġing": 4461,
      "Ġrom": 4462,
      "Ġtim": 4463,
      "Ġtaken": 4464,
      "Ġaquelle": 4465,
      "Ġsmo": 4466,
      "Ġschool": 4467,
      "reio": 4468,
      "Ġdust": 4469,
      "Ġdiga": 4470,
      "Ġwither": 4471,
      "Ġcres": 4472,
      "Ġcun": 4473,
      "Ġcoc": 4474,
      "Ġbrow": 4475,
      "Ġbite": 4476,
      "Ġbrows": 4477,
      "Ġpress": 4478,
      "Ġpains": 4479,
      "Ġfain": 4480,
      "Ġfell": 4481,
      "enance": 4482,
      "itude": 4483,
      "Ġemend": 4484,
      "oso": 4485,
      "Ġthunder": 4486,
      "aneg": 4487,
      "anley": 4488,
      "otion": 4489,
      "Ġgown": 4490,
      "Ġgrown": 4491,
      "Ġgift": 4492,
      "Ġghost": 4493,
      "raÃ§Ã£o": 4494,
      "rava": 4495,
      "Ġbeha": 4496,
      "Ġmeat": 4497,
      "cend": 4498,
      "alha": 4499,
      "idings": 4500,
      "Ġvice": 4501,
      "Ġvinte": 4502,
      "Ġreasons": 4503,
      "Ġdoce": 4504,
      "Ġstab": 4505,
      "rift": 4506,
      "ĠCont": 4507,
      "ĠCatesby": 4508,
      "oles": 4509,
      "Ġsuc": 4510,
      "Ġwhilst": 4511,
      "Ġdaquelle": 4512,
      "arden": 4513,
      "ardine": 4514,
      "ĠAumerle": 4515,
      "Ġamigos": 4516,
      "elp": 4517,
      "ĠRom": 4518,
      "Ġknave": 4519,
      "Ġjunt": 4520,
      "Ġdisgra": 4521,
      "Ġrosto": 4522,
      "AND": 4523,
      "ĠPed": 4524,
      "Ġleaves": 4525,
      "Ġestas": 4526,
      "Ġblest": 4527,
      "Ġblind": 4528,
      "ĠHer": 4529,
      "Ġdesign": 4530,
      "Ġsirrah": 4531,
      "epois": 4532,
      "Ġunw": 4533,
      "Ġproof": 4534,
      "allow": 4535,
      "Ġens": 4536,
      "Ġlett": 4537,
      "ĠporÃ©m": 4538,
      "agem": 4539,
      "Ġcontin": 4540,
      "Ġcontava": 4541,
      "Ġmarido": 4542,
      "icked": 4543,
      "Ġprevent": 4544,
      "ĠchÃ£o": 4545,
      "Ġspake": 4546,
      "Ġspring": 4547,
      "Ġcasas": 4548,
      "Ġhonesty": 4549,
      "Ġfalou": 4550,
      "Ġtemper": 4551,
      "Ġresist": 4552,
      "Ġrude": 4553,
      "Ġdull": 4554,
      "ursed": 4555,
      "vail": 4556,
      "Ġtwice": 4557,
      "Ġtriste": 4558,
      "acher": 4559,
      "ĠKeeper": 4560,
      "Ġterce": 4561,
      "Ġjoint": 4562,
      "there": 4563,
      "Ġobrig": 4564,
      "Ġtalvez": 4565,
      "OMAS": 4566,
      "quelles": 4567,
      "Ġimposs": 4568,
      "Ġsenate": 4569,
      "ĠMars": 4570,
      "Ġsentido": 4571,
      "Ġpoder": 4572,
      "alty": 4573,
      "Ġmalice": 4574,
      "Ġpursu": 4575,
      "Ġinstante": 4576,
      "Ġcausa": 4577,
      "twixt": 4578,
      "Ġopera": 4579,
      "Ġpude": 4580,
      "unts": 4581,
      "Ġacabava": 4582,
      "Ġwrongs": 4583,
      "Ġcounter": 4584,
      "Ġmorre": 4585,
      "Ġaffair": 4586,
      "Ġtraitors": 4587,
      "Ġdivine": 4588,
      "Ġpensei": 4589,
      "Ġgreen": 4590,
      "ĠCominius": 4591,
      "Ġchoice": 4592,
      "ĠEsta": 4593,
      "Ġburied": 4594,
      "Ġsignal": 4595,
      "Ġsacred": 4596,
      "Ġfavor": 4597,
      "casa": 4598,
      "Ġenvy": 4599,
      "after": 4600,
      "ĠCorioli": 4601,
      "Ġpequeno": 4602,
      "Ġundert": 4603,
      "Ġversos": 4604,
      "Ġleng": 4605,
      "ĠopiniÃ£o": 4606,
      "Ġtyran": 4607,
      "Ġproprio": 4608,
      "Ġstoop": 4609,
      "Ġimperador": 4610,
      "BRAKEN": 4611,
      "ĠPlantagenet": 4612,
      "yrico": 4613,
      "Ġachou": 4614,
      "ĠPaulina": 4615,
      "Ġfiery": 4616,
      "Ġquestion": 4617,
      "Methinks": 4618,
      "Ġembrace": 4619,
      "Ġlangu": 4620,
      "ĠCapitol": 4621,
      "Ġsafety": 4622,
      "anegyrico": 4623,
      "BRAKENBURY": 4624,
      "?'": 4625,
      "Bl": 4626,
      "DER": 4627,
      "DON": 4628,
      "Edward": 4629,
      "Gra": 4630,
      "GOR": 4631,
      "Hence": 4632,
      "Inde": 4633,
      "JÃ¡": 4634,
      "Just": 4635,
      "MIST": 4636,
      "Once": 4637,
      "Richard": 4638,
      "RESS": 4639,
      "Tudo": 4640,
      "ais": 4641,
      "ares": 4642,
      "bro": 4643,
      "cado": 4644,
      "ccles": 4645,
      "draw": 4646,
      "fil": 4647,
      "his": 4648,
      "iou": 4649,
      "iast": 4650,
      "ls": 4651,
      "mur": 4652,
      "nem": 4653,
      "noss": 4654,
      "oot": 4655,
      "ph": 4656,
      "pur": 4657,
      "roth": 4658,
      "uct": 4659,
      "vou": 4660,
      "would": 4661,
      "ĠTo": 4662,
      "Ġted": 4663,
      "Ġtam": 4664,
      "Ġagu": 4665,
      "Ġahi": 4666,
      "hend": 4667,
      "Ġsap": 4668,
      "Ġsalt": 4669,
      "Ġsits": 4670,
      "Ġment": 4671,
      "inous": 4672,
      "inco": 4673,
      "Ġwag": 4674,
      "Ġwings": 4675,
      "ises": 4676,
      "Ġcens": 4677,
      "Ġcere": 4678,
      "Ġclaim": 4679,
      "Ġbark": 4680,
      "Ġtheatro": 4681,
      "Ġfury": 4682,
      "Ġfright": 4683,
      "Ġfinger": 4684,
      "Ġfatal": 4685,
      "Ġnose": 4686,
      "enen": 4687,
      "Ġele": 4688,
      "Ġeag": 4689,
      "Ġease": 4690,
      "Ġeccles": 4691,
      "ompan": 4692,
      "Ġgaz": 4693,
      "Ġgarden": 4694,
      "atos": 4695,
      "Ġdez": 4696,
      "Ġquintal": 4697,
      "Ġinform": 4698,
      "als": 4699,
      "icos": 4700,
      "icio": 4701,
      "Ġsepar": 4702,
      "Ġrevel": 4703,
      "Ġweeds": 4704,
      "Ġdoor": 4705,
      "anda": 4706,
      "Ġstones": 4707,
      "ĠChe": 4708,
      "ĠCons": 4709,
      "ĠEx": 4710,
      "Ġanger": 4711,
      "Ġloy": 4712,
      "Ġloath": 4713,
      "Ġlogar": 4714,
      "Ġallow": 4715,
      "Ġdaqui": 4716,
      "Ġdaquella": 4717,
      "aper": 4718,
      "ousin": 4719,
      "Ġmuitos": 4720,
      "Ġfares": 4721,
      "think": 4722,
      "hanÃ§a": 4723,
      "Ġamaz": 4724,
      "ctise": 4725,
      "elve": 4726,
      "ĠSomer": 4727,
      "Ġknight": 4728,
      "arei": 4729,
      "Ġalways": 4730,
      "ĠOVER": 4731,
      "Ġround": 4732,
      "feren": 4733,
      "Ġempt": 4734,
      "Ġsail": 4735,
      "Ġbrinc": 4736,
      "Ġachar": 4737,
      "Ġdesco": 4738,
      "Ġperceive": 4739,
      "Ġoracle": 4740,
      "Ġexclam": 4741,
      "Myself": 4742,
      "Ġmayor": 4743,
      "ĠTio": 4744,
      "Ġhollow": 4745,
      "Ġaborre": 4746,
      "inhas": 4747,
      "Without": 4748,
      "Ġfalt": 4749,
      "Ġadver": 4750,
      "Ġadieu": 4751,
      "Ġtempt": 4752,
      "issima": 4753,
      "Ġressa": 4754,
      "Ġplot": 4755,
      "Ġwherein": 4756,
      "Ġduv": 4757,
      "Ġflat": 4758,
      "Wherein": 4759,
      "Ġalguem": 4760,
      "Ġtroth": 4761,
      "Ġtrick": 4762,
      "Ġapostol": 4763,
      "Ġpreser": 4764,
      "Ġprayer": 4765,
      "PETER": 4766,
      "Ġrememb": 4767,
      "Ġimprison": 4768,
      "Ġaccus": 4769,
      "Ġiria": 4770,
      "Ġtongues": 4771,
      "Ġplague": 4772,
      "Ġcares": 4773,
      "Ġsimple": 4774,
      "gredo": 4775,
      "Ġlembran": 4776,
      "Ġacabar": 4777,
      "Ġficava": 4778,
      "Ġused": 4779,
      "GREGOR": 4780,
      "Ġsmile": 4781,
      "Ġdrawn": 4782,
      "Ġorden": 4783,
      "Ġmoral": 4784,
      "Ġmorrer": 4785,
      "Ġsegunda": 4786,
      "Ġwanton": 4787,
      "Ġpractise": 4788,
      "Ġbonito": 4789,
      "Ġbonita": 4790,
      "ĠpÃ©s": 4791,
      "Ġtitulo": 4792,
      "Ġdeserve": 4793,
      "Ġdelight": 4794,
      "Ġvisitas": 4795,
      "Ġexecut": 4796,
      "Ġabsence": 4797,
      "Ġnumero": 4798,
      "ĠĠĠĠĠĠĠ": 4799,
      "Ġideias": 4800,
      "Ġcreature": 4801,
      "Ġdrop": 4802,
      "Ġnamor": 4803,
      "Ġcontract": 4804,
      "ĠThomas": 4805,
      "Ġcheek": 4806,
      "Ġembora": 4807,
      "Ġremedy": 4808,
      "Ġcustom": 4809,
      "Ġutter": 4810,
      "Ġhistoria": 4811,
      "Ġtrumpets": 4812,
      "Ġignorant": 4813,
      "Ġenjoy": 4814,
      "Ġagrade": 4815,
      "Ġescript": 4816,
      "Ġ18": 4817,
      "Ġrotten": 4818,
      "Ġplead": 4819,
      "Brother": 4820,
      "Ġamizade": 4821,
      "ĠBarnardine": 4822,
      "DERBY": 4823,
      "DONE": 4824,
      "Indeed": 4825,
      "MISTRESS": 4826,
      "enenius": 4827,
      "Ġecclesiast": 4828,
      "ĠOVERDONE": 4829,
      "Ġressaca": 4830,
      "GREGORY": 4831,
      "Art": 4832,
      "CH": 4833,
      "Dost": 4834,
      "FORD": 4835,
      "Having": 4836,
      "MA": 4837,
      "OX": 4838,
      "Ou": 4839,
      "Poor": 4840,
      "RICH": 4841,
      "SOM": 4842,
      "Turn": 4843,
      "VAL": 4844,
      "cord": 4845,
      "culo": 4846,
      "dem": 4847,
      "ealous": 4848,
      "gando": 4849,
      "long": 4850,
      "my": 4851,
      "mion": 4852,
      "place": 4853,
      "son": 4854,
      "tudo": 4855,
      "tambem": 4856,
      "uÃ§Ã£o": 4857,
      "what": 4858,
      "yard": 4859,
      "ĠWhere": 4860,
      "Ġtort": 4861,
      "Ġtune": 4862,
      "Ġtivesse": 4863,
      "Ġtidings": 4864,
      "Ġaim": 4865,
      "Ġaught": 4866,
      "held": 4867,
      "Ġmom": 4868,
      "inist": 4869,
      "inze": 4870,
      "Ġdim": 4871,
      "Ġdout": 4872,
      "happ": 4873,
      "haps": 4874,
      "Ġwent": 4875,
      "Ġwont": 4876,
      "Ġwives": 4877,
      "Ġwicked": 4878,
      "Ġcell": 4879,
      "Ġcure": 4880,
      "Ġcrer": 4881,
      "Ġcries": 4882,
      "Ġband": 4883,
      "Ġbol": 4884,
      "esy": 4885,
      "Ġpade": 4886,
      "Ġow": 4887,
      "Ġnella": 4888,
      "enes": 4889,
      "Ġlic": 4890,
      "Ġloud": 4891,
      "onounce": 4892,
      "Ġeter": 4893,
      "Ġhit": 4894,
      "Ġhid": 4895,
      "Ġhost": 4896,
      "Ġthrust": 4897,
      "Ġdeg": 4898,
      "Ġdew": 4899,
      "Ġdece": 4900,
      "Ġdeceived": 4901,
      "segu": 4902,
      "Ġquit": 4903,
      "Ġquatro": 4904,
      "Ġbelly": 4905,
      "Ġbecomes": 4906,
      "Ġmend": 4907,
      "irt": 4908,
      "Ġinve": 4909,
      "Ġinfect": 4910,
      "entre": 4911,
      "ldom": 4912,
      "ical": 4913,
      "Ġvant": 4914,
      "Ġvol": 4915,
      "Ġsep": 4916,
      "Ġseman": 4917,
      "Ġsendo": 4918,
      "Ġasleep": 4919,
      "rog": 4920,
      "Ġstar": 4921,
      "Ġstat": 4922,
      "Ġstorm": 4923,
      "ords": 4924,
      "Ġsolem": 4925,
      "ĠCal": 4926,
      "esses": 4927,
      "ainda": 4928,
      "Ġsuitor": 4929,
      "Ġshar": 4930,
      "Ġparl": 4931,
      "Ġmuitas": 4932,
      "this": 4933,
      "resp": 4934,
      "Ġatraz": 4935,
      "ĠMusic": 4936,
      "ĠSic": 4937,
      "ĠSant": 4938,
      "Ġjealous": 4939,
      "Ġalas": 4940,
      "ERIA": 4941,
      "ERSET": 4942,
      "ĠOu": 4943,
      "ĠOut": 4944,
      "Ġdissim": 4945,
      "Ġdiscover": 4946,
      "Ġrindo": 4947,
      "Ġoutward": 4948,
      "umb": 4949,
      "ĠPro": 4950,
      "ĠDepois": 4951,
      "Ġestou": 4952,
      "Ġsheep": 4953,
      "Ġdesert": 4954,
      "udes": 4955,
      "Ġora": 4956,
      "Ġtherein": 4957,
      "oken": 4958,
      "pollo": 4959,
      "ĠJove": 4960,
      "Ġshouldst": 4961,
      "Ġprest": 4962,
      "Ġchief": 4963,
      "Ġsonhos": 4964,
      "Ġfeito": 4965,
      "Ġfalta": 4966,
      "ĠYour": 4967,
      "Ġadvant": 4968,
      "Ġpair": 4969,
      "Ġresign": 4970,
      "Ġearn": 4971,
      "Ġruin": 4972,
      "eeth": 4973,
      "loved": 4974,
      "Ġpassou": 4975,
      "Ġpassing": 4976,
      "Ġpassado": 4977,
      "Ġtrat": 4978,
      "itting": 4979,
      "Ġconsult": 4980,
      "Ġcheia": 4981,
      "Ġtern": 4982,
      "Ġterror": 4983,
      "Ġconfus": 4984,
      "Ġwhole": 4985,
      "Ġmeaning": 4986,
      "Ġescol": 4987,
      "retanto": 4988,
      "Ġsentia": 4989,
      "Ġdevise": 4990,
      "Ġtread": 4991,
      "Ġtreacher": 4992,
      "Ġwoful": 4993,
      "nosco": 4994,
      "Ġbegins": 4995,
      "Ġdiabo": 4996,
      "Ġcarro": 4997,
      "Ġcarry": 4998,
      "Ġfarther": 4999,
      "Ġfazel": 5000,
      "Ġantiga": 5001,
      "Ġouviu": 5002,
      "Ġdeposed": 5003,
      "Ġpediu": 5004,
      "Ġbanished": 5005,
      "Ġpossible": 5006,
      "Ġfollows": 5007,
      "Ġfollowers": 5008,
      "Ġdefin": 5009,
      "Ġlembrou": 5010,
      "Ġdeixou": 5011,
      "Ġperguntei": 5012,
      "Ġdestin": 5013,
      "Ġfellows": 5014,
      "Ġmodest": 5015,
      "Ġfools": 5016,
      "Ġmaids": 5017,
      "venture": 5018,
      "Ġquizesse": 5019,
      "Ġinfin": 5020,
      "Ġsupper": 5021,
      "Show": 5022,
      "Ġpraz": 5023,
      "Ġpraia": 5024,
      "Ġcrack": 5025,
      "Ġsilence": 5026,
      "Ġgives": 5027,
      "Ġborne": 5028,
      "Ġentrei": 5029,
      "Ġresolve": 5030,
      "Ġoccasion": 5031,
      "Ġadvise": 5032,
      "Ġinstruct": 5033,
      "Ġcastle": 5034,
      "Ġbroken": 5035,
      "Ġnumber": 5036,
      "Ġtroop": 5037,
      "Ġultima": 5038,
      "Ġultimo": 5039,
      "Ġgarments": 5040,
      "MOND": 5041,
      "Ġundone": 5042,
      "Ġthrive": 5043,
      "Ġawake": 5044,
      "Ġbabe": 5045,
      "Ġdreadful": 5046,
      "Ġviolent": 5047,
      "Ġespec": 5048,
      "Ġexplica": 5049,
      "Besides": 5050,
      "Ġpolit": 5051,
      "Ġconcluiu": 5052,
      "ursday": 5053,
      "ĠGrey": 5054,
      "ĠTalvez": 5055,
      "Into": 5056,
      "Ġrascal": 5057,
      "Ġdespite": 5058,
      "Ġbenefit": 5059,
      "ĠChristian": 5060,
      "ologia": 5061,
      "Ġvivia": 5062,
      "Ġauthority": 5063,
      "Ġinteiramente": 5064,
      "Ġthroat": 5065,
      "ĠVerona": 5066,
      "Ġdefuncto": 5067,
      "Ġcircumst": 5068,
      "Ġaffairs": 5069,
      "Ġtedious": 5070,
      "ĠSomerset": 5071,
      "OXFORD": 5072,
      "RICHMOND": 5073,
      "SOMERSET": 5074,
      "VALERIA": 5075,
      "mione": 5076,
      "Ġvantage": 5077,
      "00": 5078,
      "Ad": 5079,
      "Ap": 5080,
      "BUS": 5081,
      "Cons": 5082,
      "Great": 5083,
      "HY": 5084,
      "Hast": 5085,
      "LIUS": 5086,
      "MOP": 5087,
      "Nem": 5088,
      "Panegyrico": 5089,
      "Sha": 5090,
      "Tail": 5091,
      "Tybalt": 5092,
      "Vamos": 5093,
      "Very": 5094,
      "bow": 5095,
      "cam": 5096,
      "eem": 5097,
      "father": 5098,
      "gon": 5099,
      "gger": 5100,
      "iado": 5101,
      "mit": 5102,
      "pest": 5103,
      "ues": 5104,
      "var": 5105,
      "yond": 5106,
      "ĠThere": 5107,
      "Ġtiver": 5108,
      "Ġtaste": 5109,
      "Ġamend": 5110,
      "hest": 5111,
      "Ġmoc": 5112,
      "Ġmira": 5113,
      "Ġmult": 5114,
      "inete": 5115,
      "rent": 5116,
      "ĠdÃ¡": 5117,
      "hado": 5118,
      "Ġwine": 5119,
      "Ġwander": 5120,
      "ndello": 5121,
      "Ġcem": 5122,
      "Ġcava": 5123,
      "Ġciumes": 5124,
      "Ġba": 5125,
      "Ġbis": 5126,
      "Ġball": 5127,
      "Ġpin": 5128,
      "Ġpos": 5129,
      "Ġpall": 5130,
      "Ġpura": 5131,
      "Ġpaper": 5132,
      "Ġolh": 5133,
      "Ġowe": 5134,
      "Ġfr": 5135,
      "Ġfut": 5136,
      "Ġfix": 5137,
      "Ġnine": 5138,
      "Ġler": 5139,
      "Ġlent": 5140,
      "Ġline": 5141,
      "Ġlance": 5142,
      "Ġluz": 5143,
      "aso": 5144,
      "osas": 5145,
      "anch": 5146,
      "Ġtop": 5147,
      "Ġgain": 5148,
      "Ġgru": 5149,
      "Ġgast": 5150,
      "Ġgage": 5151,
      "ater": 5152,
      "atic": 5153,
      "atsw": 5154,
      "Ġded": 5155,
      "Ġdet": 5156,
      "Ġdecl": 5157,
      "Ġdeante": 5158,
      "rage": 5159,
      "imas": 5160,
      "Ġbelike": 5161,
      "Ġbeheld": 5162,
      "cendo": 5163,
      "Ġmyster": 5164,
      "utation": 5165,
      "icias": 5166,
      "Ġvan": 5167,
      "Ġvamos": 5168,
      "Ġseis": 5169,
      "Ġseas": 5170,
      "Ġcomnosco": 5171,
      "Ġrenown": 5172,
      "Ġweight": 5173,
      "Ġweap": 5174,
      "ills": 5175,
      "room": 5176,
      "Ġstore": 5177,
      "Ġstep": 5178,
      "Ġstock": 5179,
      "Ġstuff": 5180,
      "Ġnobles": 5181,
      "Ġlip": 5182,
      "Ã©ras": 5183,
      "Ġconquer": 5184,
      "Ġangel": 5185,
      "olix": 5186,
      "iondello": 5187,
      "Ġwhither": 5188,
      "nte": 5189,
      "ouses": 5190,
      "Ġfaces": 5191,
      "ĠAd": 5192,
      "Ġamar": 5193,
      "ĠMOW": 5194,
      "ĠMenenius": 5195,
      "eless": 5196,
      "Ġshut": 5197,
      "Ġshore": 5198,
      "Ġalmo": 5199,
      "Ġdisd": 5200,
      "Ġria": 5201,
      "Ġrod": 5202,
      "Ġrash": 5203,
      "Ġmaneira": 5204,
      "iei": 5205,
      "Ġemquanto": 5206,
      "ĠDo": 5207,
      "ĠDor": 5208,
      "Ġlean": 5209,
      "Ġlegs": 5210,
      "Ġarre": 5211,
      "Ġestre": 5212,
      "Ġestivesse": 5213,
      "ĠBona": 5214,
      "ĠHarry": 5215,
      "Ġperil": 5216,
      "Ġperish": 5217,
      "Ġperder": 5218,
      "Ġperpet": 5219,
      "Ġprox": 5220,
      "Ġproper": 5221,
      "Ġsway": 5222,
      "Ġexile": 5223,
      "Ġexact": 5224,
      "Ġkingly": 5225,
      "ĠNap": 5226,
      "Ġspend": 5227,
      "imely": 5228,
      "Ġpegou": 5229,
      "Ġhoje": 5230,
      "...Â»": 5231,
      "Ġpreto": 5232,
      "Ġadvers": 5233,
      "ĠFriar": 5234,
      "Ġroom": 5235,
      "ABHOR": 5236,
      "Ġparts": 5237,
      "Ġpawn": 5238,
      "Ġdue": 5239,
      "Ġflight": 5240,
      "look": 5241,
      "Ġgentlewoman": 5242,
      "Ġtwelve": 5243,
      "iteous": 5244,
      "Ġbetwixt": 5245,
      "Ġconser": 5246,
      "Ġconsider": 5247,
      "Ġapesar": 5248,
      "Ġcompass": 5249,
      "aced": 5250,
      "Ġchair": 5251,
      "THOMAS": 5252,
      "Ġobject": 5253,
      "Ġpalace": 5254,
      "Ġremor": 5255,
      "ancy": 5256,
      "Ġuntil": 5257,
      "Ġmateria": 5258,
      "Ġpleased": 5259,
      "Ġpleasant": 5260,
      "Ġaccess": 5261,
      "Ġcarre": 5262,
      "Ġkeeps": 5263,
      "Ġpodiam": 5264,
      "Ġfaria": 5265,
      "Ġouvia": 5266,
      "Ġcurt": 5267,
      "Ġcurst": 5268,
      "STANLEY": 5269,
      "Ġinstant": 5270,
      "Ġcountenance": 5271,
      "Ġpropria": 5272,
      "Ġinterrom": 5273,
      "ĠcreanÃ§a": 5274,
      "Ġdeixei": 5275,
      "Ġhuman": 5276,
      "Ġhumbly": 5277,
      "MILLIUS": 5278,
      "const": 5279,
      "ounty": 5280,
      "Ġprize": 5281,
      "Ġdisposition": 5282,
      "Ġvoltando": 5283,
      "Ġdenied": 5284,
      "Ġcaminho": 5285,
      "Ġcourtesy": 5286,
      "Ġcostas": 5287,
      "Ġspirits": 5288,
      "Ġpensar": 5289,
      "Ġespir": 5290,
      "Two": 5291,
      "Ġsilver": 5292,
      "Ġsilencio": 5293,
      "Ġenterro": 5294,
      "plicou": 5295,
      "Ġbastard": 5296,
      "ĠEste": 5297,
      "Ġquero": 5298,
      "Ġdelay": 5299,
      "Ġphras": 5300,
      "Ġinstrument": 5301,
      "Ġbrook": 5302,
      "Death": 5303,
      "Ġgostava": 5304,
      "Ġenvious": 5305,
      "Ġsorry": 5306,
      "Ġnames": 5307,
      "Ġcolour": 5308,
      "ĠThursday": 5309,
      "Ġnecessidade": 5310,
      "ference": 5311,
      "Ġwedding": 5312,
      "Ġriso": 5313,
      "Ġdinner": 5314,
      "Ġsighs": 5315,
      "Ġhurt": 5316,
      "BRAY": 5317,
      "muito": 5318,
      "Ġnovamente": 5319,
      "Ġclear": 5320,
      "Ġprepared": 5321,
      "Ġcolleg": 5322,
      "Ġinnocent": 5323,
      "Ġpunish": 5324,
      "Ġdamned": 5325,
      "Ġsubstit": 5326,
      "Ġsanct": 5327,
      "Ġforsworn": 5328,
      "Ġpublic": 5329,
      "iterio": 5330,
      "Ġshadow": 5331,
      "Ġthreaten": 5332,
      "Ġmiserable": 5333,
      "EXETER": 5334,
      "Ġolhar": 5335,
      "Ġcontrary": 5336,
      "Ġneighbour": 5337,
      "Ġwreck": 5338,
      "ĠCaius": 5339,
      "Ġalegria": 5340,
      "Ġcunning": 5341,
      "Ġempty": 5342,
      "MAMILLIUS": 5343,
      "ĠMusician": 5344,
      "Ġadvantage": 5345,
      "BUSHY": 5346,
      "MOPSA": 5347,
      "Tailor": 5348,
      "atswain": 5349,
      "olixenes": 5350,
      "ĠMOWBRAY": 5351,
      "ABHORSON": 5352,
      "Ao": 5353,
      "Bo": 5354,
      "CY": 5355,
      "Cousin": 5356,
      "Ed": 5357,
      "Im": 5358,
      "Know": 5359,
      "None": 5360,
      "Nothing": 5361,
      "Por": 5362,
      "Ret": 5363,
      "Rem": 5364,
      "Right": 5365,
      "Rep": 5366,
      "SS": 5367,
      "Widow": 5368,
      "bres": 5369,
      "cida": 5370,
      "clock": 5371,
      "dy": 5372,
      "ev": 5373,
      "eve": 5374,
      "ered": 5375,
      "fÃ©": 5376,
      "fellow": 5377,
      "how": 5378,
      "ipe": 5379,
      "iores": 5380,
      "kedom": 5381,
      "lar": 5382,
      "lat": 5383,
      "med": 5384,
      "oÃ§Ã£o": 5385,
      "prom": 5386,
      "ted": 5387,
      "wise": 5388,
      "Ġire": 5389,
      "ĠWhen": 5390,
      "Ġtut": 5391,
      "Ġtable": 5392,
      "Ġaud": 5393,
      "Ġscept": 5394,
      "Ġmurderer": 5395,
      "inct": 5396,
      "Ġdies": 5397,
      "hava": 5398,
      "Ġwot": 5399,
      "Ġwood": 5400,
      "Ġwol": 5401,
      "Ġwond": 5402,
      "Ġcant": 5403,
      "Ġcul": 5404,
      "Ġcop": 5405,
      "Ġcima": 5406,
      "Ġbas": 5407,
      "Ġbud": 5408,
      "Ġpes": 5409,
      "Ġpure": 5410,
      "ĠpÃ³": 5411,
      "Ġpont": 5412,
      "Ġpainted": 5413,
      "Ġpiteous": 5414,
      "ĠfÃ©": 5415,
      "Ġfash": 5416,
      "Ġfinal": 5417,
      "Ġnaked": 5418,
      "arch": 5419,
      "Ġling": 5420,
      "ĠlicÃ§Ã£o": 5421,
      "Ġlouv": 5422,
      "ask": 5423,
      "omet": 5424,
      "osing": 5425,
      "osiÃ§Ã£o": 5426,
      "Ġyonder": 5427,
      "quei": 5428,
      "Ġheed": 5429,
      "Ġgate": 5430,
      "Ġdec": 5431,
      "Ġdebt": 5432,
      "Ġandando": 5433,
      "rac": 5434,
      "rap": 5435,
      "imp": 5436,
      "Ġquench": 5437,
      "Ġquinze": 5438,
      "Ġbeloved": 5439,
      "Ġinqu": 5440,
      "uto": 5441,
      "icion": 5442,
      "Ġsex": 5443,
      "Ġseest": 5444,
      "Ġsege": 5445,
      "ĠseparaÃ§Ã£o": 5446,
      "Ġsegredo": 5447,
      "Ġnoticia": 5448,
      "Ġreward": 5449,
      "Ġrealmente": 5450,
      "igence": 5451,
      "odo": 5452,
      "Ġweigh": 5453,
      "Ġwealth": 5454,
      "ourish": 5455,
      "urance": 5456,
      "urgel": 5457,
      "Ġstory": 5458,
      "ordo": 5459,
      "uss": 5460,
      "uses": 5461,
      "ril": 5462,
      "Ġones": 5463,
      "ARCH": 5464,
      "antas": 5465,
      "ĠEl": 5466,
      "Ġanjo": 5467,
      "Ġmaking": 5468,
      "rup": 5469,
      "ruly": 5470,
      "ific": 5471,
      "ified": 5472,
      "ostum": 5473,
      "Ġwhiles": 5474,
      "appare": 5475,
      "Three": 5476,
      "ously": 5477,
      "Ġmuro": 5478,
      "Ġfail": 5479,
      "thou": 5480,
      "Ġamen": 5481,
      "ĠMil": 5482,
      "ĠMessenger": 5483,
      "ĠRe": 5484,
      "ĠRivers": 5485,
      "Ġshun": 5486,
      "ĠSo": 5487,
      "ĠSÃ³": 5488,
      "ĠprÃ©": 5489,
      "Ġpronounce": 5490,
      "Ġjour": 5491,
      "arent": 5492,
      "ERCY": 5493,
      "adeira": 5494,
      "Ġgoodness": 5495,
      "feiÃ§Ã£o": 5496,
      "umble": 5497,
      "ĠPisa": 5498,
      "ĠPolixenes": 5499,
      "ĠPERCY": 5500,
      "Ġempl": 5501,
      "hop": 5502,
      "Ġargu": 5503,
      "Ġestim": 5504,
      "Ġestavam": 5505,
      "ĠBiondello": 5506,
      "Ġacostum": 5507,
      "ciencia": 5508,
      "Ġfolly": 5509,
      "Ġgraves": 5510,
      "Ġperalt": 5511,
      "Ġperfect": 5512,
      "ept": 5513,
      "Ġhatred": 5514,
      "Ġunp": 5515,
      "Ġunnatural": 5516,
      "Ġproject": 5517,
      "Ġtheirs": 5518,
      "Ġexpect": 5519,
      "agora": 5520,
      "Ġhopes": 5521,
      "pergunt": 5522,
      "Ġseeing": 5523,
      "Ġnaquella": 5524,
      "Ġnaquelle": 5525,
      "Ġprey": 5526,
      "Ġprevail": 5527,
      "Ġchide": 5528,
      "Ġsonho": 5529,
      "Ġspare": 5530,
      "Ġspoken": 5531,
      "Ġfee": 5532,
      "Ġfalando": 5533,
      "ontent": 5534,
      "outs": 5535,
      "outro": 5536,
      "ression": 5537,
      "Ġdukedom": 5538,
      "ĠflÃ²r": 5539,
      "Ġassurance": 5540,
      "Ġpassage": 5541,
      "Ġcourage": 5542,
      "Ġmesmos": 5543,
      "Ġcheguei": 5544,
      "Ġchegou": 5545,
      "Ġslow": 5546,
      "Ġdizel": 5547,
      "THAS": 5548,
      "Ġwrath": 5549,
      "Ġobra": 5550,
      "Ġobser": 5551,
      "Ġremains": 5552,
      "Thanks": 5553,
      "ffic": 5554,
      "Ġsenators": 5555,
      "shire": 5556,
      "ĠdevÃ©ras": 5557,
      "Ġintent": 5558,
      "uaÃ§Ã£o": 5559,
      "Ġcorrupt": 5560,
      "Ġdaughters": 5561,
      "Ġaccuse": 5562,
      "Ġiron": 5563,
      "Ġcrowns": 5564,
      "Ġhark": 5565,
      "Ġpelos": 5566,
      "Ġparede": 5567,
      "ioso": 5568,
      "Ġvisita": 5569,
      "Ġwits": 5570,
      "Ġfortunes": 5571,
      "Ġtinham": 5572,
      "Ġcurses": 5573,
      "Ġends": 5574,
      "Ġendure": 5575,
      "Ġneedful": 5576,
      "Ġattempt": 5577,
      "Still": 5578,
      "Ġteim": 5579,
      "Ġtexto": 5580,
      "Ġbodies": 5581,
      "Ġjoys": 5582,
      "Ġjoyful": 5583,
      "Ġmisery": 5584,
      "Ġmistake": 5585,
      "Ġperguntar": 5586,
      "Ġdesta": 5587,
      "Ġhappiness": 5588,
      "Ġhomens": 5589,
      "Ġcalm": 5590,
      "Ġinfer": 5591,
      "Ġvolta": 5592,
      "Ġprimeiros": 5593,
      "Ġdiscontent": 5594,
      "Ġchamava": 5595,
      "Ġresposta": 5596,
      "Ġpenit": 5597,
      "Only": 5598,
      "Ġcup": 5599,
      "Ġprinces": 5600,
      "Ġprincess": 5601,
      "Ġsometime": 5602,
      "Ġconduct": 5603,
      "Ġwounded": 5604,
      "Ġdrum": 5605,
      "Ġmarket": 5606,
      "Ġresolved": 5607,
      "Ġdirect": 5608,
      "Ġburthen": 5609,
      "Ġdemor": 5610,
      "Ġprotest": 5611,
      "Ġfizesse": 5612,
      "Ġdelic": 5613,
      "Ġadminist": 5614,
      "Ġwaters": 5615,
      "Ġadvance": 5616,
      "Ġrepeti": 5617,
      "Ġcursed": 5618,
      "Ġaccept": 5619,
      "ĠPeter": 5620,
      "Ġbella": 5621,
      "chance": 5622,
      "Ġpequena": 5623,
      "Prima": 5624,
      "Prithee": 5625,
      "Ġsorriu": 5626,
      "ency": 5627,
      "Ġambos": 5628,
      "ĠPaulo": 5629,
      "Ġcolours": 5630,
      "ĠPrima": 5631,
      "Ġopinion": 5632,
      "Ġprivile": 5633,
      "Ġgriev": 5634,
      "Ġviagem": 5635,
      "Ġgroan": 5636,
      "Ġobedience": 5637,
      "Ġinjur": 5638,
      "Ġinclin": 5639,
      "BALTHAS": 5640,
      "cript": 5641,
      "Ġmotion": 5642,
      "Ġnegoc": 5643,
      "Ġtorment": 5644,
      "Ġhouve": 5645,
      "Ġdurst": 5646,
      "Ġgovernment": 5647,
      "Ġcredit": 5648,
      "Ġpetition": 5649,
      "ĠreflexÃ£o": 5650,
      "ĠStanley": 5651,
      "Believe": 5652,
      "Ġseveral": 5653,
      "hearted": 5654,
      "Ġmusica": 5655,
      "Ġsaudades": 5656,
      "Ġmedicina": 5657,
      "Ġdiffic": 5658,
      "ortunata": 5659,
      "Ġexemplo": 5660,
      "Ġphysic": 5661,
      "Ġcontinue": 5662,
      "Ġundertake": 5663,
      "Ġlanguage": 5664,
      "Ġremembrance": 5665,
      "ĠlembranÃ§a": 5666,
      "Ġsolemn": 5667,
      "Ġternura": 5668,
      "Ġprazer": 5669,
      "Ġcemiterio": 5670,
      "Ġcavallo": 5671,
      "Ġemploy": 5672,
      "BALTHASAR": 5673,
      "?--": 5674,
      "?Â»": 5675,
      "Ar": 5676,
      "Agora": 5677,
      "AEd": 5678,
      "Bear": 5679,
      "Father": 5680,
      "FOL": 5681,
      "Has": 5682,
      "LX": 5683,
      "Might": 5684,
      "Minha": 5685,
      "Mark": 5686,
      "Oh": 5687,
      "OSS": 5688,
      "Post": 5689,
      "Page": 5690,
      "SÃ£o": 5691,
      "Save": 5692,
      "Tambem": 5693,
      "bus": 5694,
      "bel": 5695,
      "bear": 5696,
      "cul": 5697,
      "cons": 5698,
      "disse": 5699,
      "far": 5700,
      "fess": 5701,
      "fosse": 5702,
      "hore": 5703,
      "iance": 5704,
      "jos": 5705,
      "jam": 5706,
      "jud": 5707,
      "kin": 5708,
      "ker": 5709,
      "mor": 5710,
      "mity": 5711,
      "nada": 5712,
      "phe": 5713,
      "pÃ©": 5714,
      "rich": 5715,
      "rong": 5716,
      "same": 5717,
      "sigo": 5718,
      "time": 5719,
      "uce": 5720,
      "uary": 5721,
      "xug": 5722,
      "Ġz": 5723,
      "ĠWho": 5724,
      "ĠThey": 5725,
      "Ġiamos": 5726,
      "Ġtir": 5727,
      "Ġtap": 5728,
      "Ġteeth": 5729,
      "Ġape": 5730,
      "heres": 5731,
      "Ġsink": 5732,
      "Ġsins": 5733,
      "Ġmol": 5734,
      "Ġmile": 5735,
      "inter": 5736,
      "incip": 5737,
      "Ġdiria": 5738,
      "had": 5739,
      "isper": 5740,
      "Ġcort": 5741,
      "Ġclo": 5742,
      "Ġcinco": 5743,
      "Ġbare": 5744,
      "Ġpot": 5745,
      "Ġpowers": 5746,
      "Ġfle": 5747,
      "Ġfei": 5748,
      "Ġfame": 5749,
      "Ġnought": 5750,
      "ences": 5751,
      "Ġled": 5752,
      "Ġlap": 5753,
      "Ġeast": 5754,
      "osop": 5755,
      "Ġhunt": 5756,
      "Ġhouses": 5757,
      "Ġtocha": 5758,
      "quillo": 5759,
      "ĠIre": 5760,
      "ĠItal": 5761,
      "Ġhei": 5762,
      "Ġhes": 5763,
      "Ġge": 5764,
      "Ġgam": 5765,
      "atience": 5766,
      "Ġdedos": 5767,
      "Ġandava": 5768,
      "Ġbew": 5769,
      "Ġbeyond": 5770,
      "adamente": 5771,
      "cei": 5772,
      "cem": 5773,
      "Ġincre": 5774,
      "enta": 5775,
      "Ġhav": 5776,
      "Ġhaz": 5777,
      "strous": 5778,
      "idence": 5779,
      "Ġvig": 5780,
      "Ġseize": 5781,
      "Ġisle": 5782,
      "Ġisland": 5783,
      "Ġcomest": 5784,
      "Ġrend": 5785,
      "Ġrepe": 5786,
      "Ġrepl": 5787,
      "Ġrealm": 5788,
      "odos": 5789,
      "Ġaspect": 5790,
      "Ġits": 5791,
      "urre": 5792,
      "Ġkin": 5793,
      "aver": 5794,
      "Ġnobl": 5795,
      "Ã§ava": 5796,
      "Ã§ado": 5797,
      "rio": 5798,
      "ĠCan": 5799,
      "ants": 5800,
      "ilosop": 5801,
      "Ġumas": 5802,
      "olhos": 5803,
      "meu": 5804,
      "Ġshape": 5805,
      "Ġdares": 5806,
      "Ġdagger": 5807,
      "Those": 5808,
      "ntes": 5809,
      "Whither": 5810,
      "rescent": 5811,
      "Ġnego": 5812,
      "ĠROSS": 5813,
      "Ġshr": 5814,
      "ĠSanta": 5815,
      "Ġprod": 5816,
      "Ġalv": 5817,
      "Ġdisso": 5818,
      "Ġrar": 5819,
      "Ġring": 5820,
      "Ġrir": 5821,
      "Ġmanif": 5822,
      "Ġmanners": 5823,
      "athia": 5824,
      "ortal": 5825,
      "ĠGood": 5826,
      "ieved": 5827,
      "onde": 5828,
      "Ġleit": 5829,
      "Ġleads": 5830,
      "Ġblock": 5831,
      "Ġblush": 5832,
      "Ġbrings": 5833,
      "ĠBl": 5834,
      "entei": 5835,
      "Ġacompan": 5836,
      "Ġdespe": 5837,
      "Ġgrav": 5838,
      "Ġunhapp": 5839,
      "uncia": 5840,
      "Ġhereafter": 5841,
      "Ġswallow": 5842,
      "Ġenmity": 5843,
      "Ġexerc": 5844,
      "Ġesquer": 5845,
      "ĠNay": 5846,
      "Assim": 5847,
      "Ġpeg": 5848,
      "ĠTake": 5849,
      "Ġcontei": 5850,
      "Young": 5851,
      "Ġabhor": 5852,
      "Ġfathers": 5853,
      "Ġchic": 5854,
      "Ġcholer": 5855,
      "Ġsoneto": 5856,
      "Ġspite": 5857,
      "Ġfeed": 5858,
      "Ġfeio": 5859,
      "Ġpobre": 5860,
      "Ġpoeta": 5861,
      "CAS": 5862,
      "Ġboar": 5863,
      "Ġmenor": 5864,
      "ĠYet": 5865,
      "ĠFrench": 5866,
      "Ġcommiss": 5867,
      "isso": 5868,
      "Quem": 5869,
      "Ġlooking": 5870,
      "Ġrule": 5871,
      "Ġflies": 5872,
      "Ġfriendly": 5873,
      "Ġcock": 5874,
      "Ġrepair": 5875,
      "Ġtrade": 5876,
      "comp": 5877,
      "Ġfairly": 5878,
      "iraÃ§Ã£o": 5879,
      "Ġterms": 5880,
      "Ġslay": 5881,
      "Ġdizem": 5882,
      "Ġfundo": 5883,
      "ĠsÃ³s": 5884,
      "Ġways": 5885,
      "they": 5886,
      "Ġwrite": 5887,
      "aintain": 5888,
      "iano": 5889,
      "quellas": 5890,
      "Ġarmour": 5891,
      "Ġimped": 5892,
      "ĠsenÃ£o": 5893,
      "Ġuntimely": 5894,
      "Ġscene": 5895,
      "ĠintenÃ§Ã£o": 5896,
      "ĠQuiz": 5897,
      "Ġbrain": 5898,
      "ctions": 5899,
      "Ġcorri": 5900,
      "noon": 5901,
      "Ġpelas": 5902,
      "Ġvisinho": 5903,
      "Ġvirg": 5904,
      "Ġslept": 5905,
      "Ġprompt": 5906,
      "ney": 5907,
      "Ġpurcha": 5908,
      "Ġcair": 5909,
      "ĠcafÃ©": 5910,
      "Ġseeming": 5911,
      "Ġglorious": 5912,
      "Ġhorses": 5913,
      "Ġteve": 5914,
      "Ġpatric": 5915,
      "Ġpoucos": 5916,
      "Ġpux": 5917,
      "Ġlembrar": 5918,
      "Ġdeixar": 5919,
      "Ġservices": 5920,
      "Ġvault": 5921,
      "uteous": 5922,
      "Ġhateful": 5923,
      "Ġstrew": 5924,
      "Ġturns": 5925,
      "Ġquizer": 5926,
      "Ġconfessar": 5927,
      "Ġcamest": 5928,
      "Ġwants": 5929,
      "Ġpraise": 5930,
      "Ġcontented": 5931,
      "Ġcommanded": 5932,
      "NORFOL": 5933,
      "Ġgrey": 5934,
      "Ġhanging": 5935,
      "Ġlevou": 5936,
      "Ġlevava": 5937,
      "Ġfreely": 5938,
      "Supp": 5939,
      "princip": 5940,
      "Ġdrums": 5941,
      "Ġbasta": 5942,
      "Ġesperar": 5943,
      "Ġresolution": 5944,
      "Ġvenom": 5945,
      "Ġdeserves": 5946,
      "Ġgrows": 5947,
      "ĠLucio": 5948,
      "Ġtomb": 5949,
      "Ġsacri": 5950,
      "porque": 5951,
      "Ġabsent": 5952,
      "Ġregal": 5953,
      "ristÃ£o": 5954,
      "Ġautor": 5955,
      "Ġgranted": 5956,
      "Ġapparel": 5957,
      "Ġdrops": 5958,
      "Ġshortly": 5959,
      "Ġapproach": 5960,
      "Ġdissol": 5961,
      "Ġvinham": 5962,
      "pirou": 5963,
      "Ġolhando": 5964,
      "Ġrespected": 5965,
      "Ġafflig": 5966,
      "Ġafflict": 5967,
      "Ġcerta": 5968,
      "Ġframe": 5969,
      "Ġcomplain": 5970,
      "Beseech": 5971,
      "Ġcartas": 5972,
      "Ġlarge": 5973,
      "Ġdifferen": 5974,
      "Ġcease": 5975,
      "Ġunknown": 5976,
      "Ġcaptain": 5977,
      "Ġmourn": 5978,
      "Ġodds": 5979,
      "commigo": 5980,
      "DORCAS": 5981,
      "EntÃ£o": 5982,
      "Ġegual": 5983,
      "Ġreverend": 5984,
      "Ġsuspicion": 5985,
      "Ġscope": 5986,
      "dizer": 5987,
      "Ġprovavelmente": 5988,
      "Ġexcellent": 5989,
      "Ġsmooth": 5990,
      "olesome": 5991,
      "Ġjuntos": 5992,
      "ĠHermione": 5993,
      "Ġlettras": 5994,
      "Ġterceiro": 5995,
      "Ġmorreu": 5996,
      "Ġdegree": 5997,
      "respond": 5998,
      "Ġearnest": 5999,
      "Ġespecie": 6000,
      "Ġdisdain": 6001,
      "ĠNaples": 6002,
      "Boatswain": 6003,
      "Ġsceptre": 6004,
      "Ġlingua": 6005,
      "Ġnegocio": 6006,
      "NORFOLK": 6007,
      ";--": 6008,
      "Amen": 6009,
      "Boy": 6010,
      "Came": 6011,
      "CXX": 6012,
      "CXXX": 6013,
      "DIN": 6014,
      "Dear": 6015,
      "Fo": 6016,
      "FER": 6017,
      "GH": 6018,
      "Ghost": 6019,
      "Happ": 6020,
      "Help": 6021,
      "Jo": 6022,
      "Long": 6023,
      "LXX": 6024,
      "LXXX": 6025,
      "Mistress": 6026,
      "NS": 6027,
      "RR": 6028,
      "Res": 6029,
      "Roman": 6030,
      "Set": 6031,
      "Tu": 6032,
      "Tinha": 6033,
      "Ver": 6034,
      "Wilt": 6035,
      "Worthy": 6036,
      "XC": 6037,
      "bb": 6038,
      "bon": 6039,
      "bod": 6040,
      "ded": 6041,
      "dge": 6042,
      "ez": 6043,
      "ext": 6044,
      "eiras": 6045,
      "fret": 6046,
      "fold": 6047,
      "gers": 6048,
      "iend": 6049,
      "iate": 6050,
      "iÃ§a": 6051,
      "mim": 6052,
      "mÃ£o": 6053,
      "mÃ£e": 6054,
      "nib": 6055,
      "oe": 6056,
      "oard": 6057,
      "ris": 6058,
      "rid": 6059,
      "rindo": 6060,
      "sse": 6061,
      "sab": 6062,
      "sÃ³": 6063,
      "ton": 6064,
      "tled": 6065,
      "ued": 6066,
      "uld": 6067,
      "wife": 6068,
      "ĠXX": 6069,
      "ĠXXX": 6070,
      "ĠTherefore": 6071,
      "Ġtame": 6072,
      "Ġtide": 6073,
      "Ġtendo": 6074,
      "Ġtaught": 6075,
      "Ġav": 6076,
      "Ġable": 6077,
      "Ġsouth": 6078,
      "Ġsanta": 6079,
      "Ġmill": 6080,
      "Ġmessenger": 6081,
      "ouco": 6082,
      "inario": 6083,
      "inhanÃ§a": 6084,
      "Ġder": 6085,
      "Ġdir": 6086,
      "Ġdera": 6087,
      "Ġdura": 6088,
      "Ġdress": 6089,
      "hando": 6090,
      "orous": 6091,
      "ories": 6092,
      "Ġchat": 6093,
      "Ġcand": 6094,
      "Ġcidade": 6095,
      "Ġcatch": 6096,
      "Ġbury": 6097,
      "Ġbaixo": 6098,
      "Ġpend": 6099,
      "Ġpapa": 6100,
      "Ġolhe": 6101,
      "Ġfif": 6102,
      "Ġfurn": 6103,
      "Ġnelle": 6104,
      "Ġneste": 6105,
      "Ġnomes": 6106,
      "arm": 6107,
      "arÃ¡": 6108,
      "aries": 6109,
      "engo": 6110,
      "itus": 6111,
      "itando": 6112,
      "Ġlun": 6113,
      "Ġlark": 6114,
      "onio": 6115,
      "Ġequal": 6116,
      "oses": 6117,
      "osal": 6118,
      "Ġhy": 6119,
      "Ġthorn": 6120,
      "Ġthief": 6121,
      "quest": 6122,
      "Ġgab": 6123,
      "ative": 6124,
      "ature": 6125,
      "atcl": 6126,
      "Ġdeve": 6127,
      "Ġdepend": 6128,
      "raord": 6129,
      "rada": 6130,
      "imon": 6131,
      "imidade": 6132,
      "Ġquaes": 6133,
      "Ġbeard": 6134,
      "Ġbethink": 6135,
      "Ġmeant": 6136,
      "aded": 6137,
      "cel": 6138,
      "Ġhabit": 6139,
      "Ġmyst": 6140,
      "alis": 6141,
      "alav": 6142,
      "amengo": 6143,
      "Ġvast": 6144,
      "Ġvows": 6145,
      "Ġsell": 6146,
      "Ġrede": 6147,
      "Ġrevolt": 6148,
      "Ġreplicou": 6149,
      "iava": 6150,
      "Ġweather": 6151,
      "Ġwept": 6152,
      "Ġdoente": 6153,
      "Ġstol": 6154,
      "avour": 6155,
      "terior": 6156,
      "Ġsolt": 6157,
      "Ġnobly": 6158,
      "Ġnoites": 6159,
      "ĠCXX": 6160,
      "ĠCXXX": 6161,
      "Ġlion": 6162,
      "iliar": 6163,
      "peis": 6164,
      "Ġconsequ": 6165,
      "ula": 6166,
      "Ġsue": 6167,
      "Ġsuck": 6168,
      "Ġwilling": 6169,
      "Ġwillingly": 6170,
      "Ġlock": 6171,
      "Ġwhip": 6172,
      "Ġdaily": 6173,
      "Ġfacil": 6174,
      "resent": 6175,
      "ĠAll": 6176,
      "ĠApollo": 6177,
      "Ġouro": 6178,
      "ĠMay": 6179,
      "ĠST": 6180,
      "Ġprick": 6181,
      "Ġknife": 6182,
      "Ġjew": 6183,
      "Ġdise": 6184,
      "Ġdisper": 6185,
      "depois": 6186,
      "Ġruth": 6187,
      "ĠGurgel": 6188,
      "ĠPray": 6189,
      "eraÃ§Ã£o": 6190,
      "Ġempre": 6191,
      "ĠLX": 6192,
      "ĠLXX": 6193,
      "ĠLXXX": 6194,
      "Ġlep": 6195,
      "ĠestÃ£o": 6196,
      "Ġestate": 6197,
      "ĠBe": 6198,
      "ĠBer": 6199,
      "Ġacont": 6200,
      "Ġaccom": 6201,
      "cios": 6202,
      "Ġperj": 6203,
      "Ġpern": 6204,
      "Ġperforce": 6205,
      "Ġunless": 6206,
      "Ġunico": 6207,
      "Ġlovely": 6208,
      "oked": 6209,
      "Ġswell": 6210,
      "Ġenco": 6211,
      "ival": 6212,
      "ivinha": 6213,
      "Ġescape": 6214,
      "aveis": 6215,
      "Ġserves": 6216,
      "Ġspecial": 6217,
      "Ġworn": 6218,
      "Ġentender": 6219,
      "Ġpeers": 6220,
      "Ġveins": 6221,
      "ĠJack": 6222,
      "ago": 6223,
      "Ġmuster": 6224,
      "idez": 6225,
      "Ġspur": 6226,
      "Ġfebre": 6227,
      "Ġcasar": 6228,
      "Ġimitar": 6229,
      "lhes": 6230,
      "Ġboots": 6231,
      "Ġmenino": 6232,
      "outra": 6233,
      "Ġafinal": 6234,
      "ĠFarewell": 6235,
      "ĠFortunata": 6236,
      "Ġroar": 6237,
      "Ġrogue": 6238,
      "Ġcommum": 6239,
      "Ġcommitted": 6240,
      "ressÃ£o": 6241,
      "Ġmostrar": 6242,
      "Ġtells": 6243,
      "Ġwhereof": 6244,
      "Ġraise": 6245,
      "gueu": 6246,
      "ĠmoÃ§o": 6247,
      "Ġassump": 6248,
      "Ġassured": 6249,
      "love": 6250,
      "vaÃ§Ã£o": 6251,
      "Ġwarlike": 6252,
      "Ġpassion": 6253,
      "iament": 6254,
      "Ġhasty": 6255,
      "Ġfears": 6256,
      "Ġbreve": 6257,
      "Ġgreatest": 6258,
      "Ġcomple": 6259,
      "Ġcomplex": 6260,
      "Ġclam": 6261,
      "Ġwrought": 6262,
      "Ġnorth": 6263,
      "forth": 6264,
      "iana": 6265,
      "Ġescut": 6266,
      "Ġappet": 6267,
      "ĠQuanto": 6268,
      "Ġbraw": 6269,
      "Ġcorrer": 6270,
      "Ġaccused": 6271,
      "Ġpareceu": 6272,
      "Ġrecu": 6273,
      "Ġwitch": 6274,
      "Ġnossos": 6275,
      "Â»,": 6276,
      "Ġcurrent": 6277,
      "Ġmetter": 6278,
      "Ġkindly": 6279,
      "Ġvieram": 6280,
      "Ġpedia": 6281,
      "Ġfinds": 6282,
      "Ġcounty": 6283,
      "Ġbuscar": 6284,
      "Stri": 6285,
      "Ġcharged": 6286,
      "Ġinterior": 6287,
      "grap": 6288,
      "Ġdestroy": 6289,
      "lhas": 6290,
      "Ġvaidade": 6291,
      "Love": 6292,
      "Ġholds": 6293,
      "GREEN": 6294,
      "Clarence": 6295,
      "riment": 6296,
      "Ġsmiles": 6297,
      "Ġcalor": 6298,
      "conhe": 6299,
      "Ġmaiden": 6300,
      "Ġstreets": 6301,
      "Ġsupposed": 6302,
      "Ġrefer": 6303,
      "Ġconfessou": 6304,
      "Ġsoundly": 6305,
      "Ġsends": 6306,
      "Ġrevenged": 6307,
      "Ġcostumes": 6308,
      "Ġwinds": 6309,
      "Ġpensamento": 6310,
      "Ġhanged": 6311,
      "Ġlevar": 6312,
      "Ġmonum": 6313,
      "Ġgiving": 6314,
      "Ġprofit": 6315,
      "Ġsuspe": 6316,
      "Ġbuild": 6317,
      "ĠXC": 6318,
      "Ġfizeram": 6319,
      "Ġsuffic": 6320,
      "Ġencont": 6321,
      "Ġphilosop": 6322,
      "ALONS": 6323,
      "Ġadvice": 6324,
      "Ġdarest": 6325,
      "Ġtornou": 6326,
      "Ġimagin": 6327,
      "Ġhardly": 6328,
      "Ġbellas": 6329,
      "Ġgarland": 6330,
      "Ġapparent": 6331,
      "Ġwaste": 6332,
      "Until": 6333,
      "Ġpieces": 6334,
      "Ġgrieve": 6335,
      "Ġsky": 6336,
      "Ġoppos": 6337,
      "Ġforbear": 6338,
      "ĠPomfret": 6339,
      "Ġgroans": 6340,
      "Ġdinheiro": 6341,
      "Ġthrice": 6342,
      "alguns": 6343,
      "Ġstopp": 6344,
      "About": 6345,
      "ĠVolsci": 6346,
      "Ġacudiu": 6347,
      "EstÃ¡": 6348,
      "Ġconceit": 6349,
      "TYRR": 6350,
      "Ġhouvesse": 6351,
      "Ġrebell": 6352,
      "ribu": 6353,
      "Ġwait": 6354,
      "Ġfigura": 6355,
      "Ġurged": 6356,
      "Ġconstant": 6357,
      "Ġlusty": 6358,
      "Ġaffections": 6359,
      "Ġesquecer": 6360,
      "ĠFlamengo": 6361,
      "Ġprosperous": 6362,
      "DORSET": 6363,
      "Ġhaply": 6364,
      "ĠPerd": 6365,
      "Ġelder": 6366,
      "Ġstudy": 6367,
      "Ġpenteado": 6368,
      "Ġsymp": 6369,
      "Ġinteresse": 6370,
      "Ġseminarista": 6371,
      "Gentlemen": 6372,
      "Ġavoid": 6373,
      "Ġbegun": 6374,
      "Ġarrived": 6375,
      "Ġsabbado": 6376,
      "Ġprotector": 6377,
      "Ġbehalf": 6378,
      "ĠRomans": 6379,
      "ĠMarshal": 6380,
      "untsman": 6381,
      "Ġcounterfeit": 6382,
      "ĠConspir": 6383,
      "Ġloyal": 6384,
      "Ġamazed": 6385,
      "Ġimprisonment": 6386,
      "Ġecclesiastica": 6387,
      "Ġsharp": 6388,
      "Ġparliament": 6389,
      "Ġdissimul": 6390,
      "Ġolhou": 6391,
      "Ġdetest": 6392,
      "Ġperpetual": 6393,
      "Ġcarreira": 6394,
      "Ġphrase": 6395,
      "Ġsanctuary": 6396,
      "Ġgrievous": 6397,
      "AEdile": 6398,
      "ĠIreland": 6399,
      "Ġesquerda": 6400,
      "DINAND": 6401,
      "FERDINAND": 6402,
      "uldade": 6403,
      "osaline": 6404,
      "atcliff": 6405,
      "Ġassumpto": 6406,
      "ALONSO": 6407,
      "TYRREL": 6408,
      ".--": 6409,
      "Ac": 6410,
      "Bring": 6411,
      "Coriol": 6412,
      "Gl": 6413,
      "Keep": 6414,
      "Mu": 6415,
      "Makes": 6416,
      "Ora": 6417,
      "Padua": 6418,
      "Papae": 6419,
      "Please": 6420,
      "Son": 6421,
      "Tem": 6422,
      "Up": 6423,
      "Vols": 6424,
      "ai": 6425,
      "aff": 6426,
      "aÃ§o": 6427,
      "cÃ§Ã£o": 6428,
      "cando": 6429,
      "cimento": 6430,
      "dist": 6431,
      "fiz": 6432,
      "faced": 6433,
      "gy": 6434,
      "gÃ£o": 6435,
      "gal": 6436,
      "grim": 6437,
      "groom": 6438,
      "ipt": 6439,
      "iÃ§o": 6440,
      "jar": 6441,
      "mand": 6442,
      "oke": 6443,
      "ogo": 6444,
      "rat": 6445,
      "rod": 6446,
      "sha": 6447,
      "sing": 6448,
      "sil": 6449,
      "some": 6450,
      "tom": 6451,
      "tinha": 6452,
      "uas": 6453,
      "uid": 6454,
      "upt": 6455,
      "ugue": 6456,
      "ubl": 6457,
      "upon": 6458,
      "vos": 6459,
      "wear": 6460,
      "zz": 6461,
      "zar": 6462,
      "ĠThen": 6463,
      "Ġtou": 6464,
      "Ġtur": 6465,
      "Ġtend": 6466,
      "Ġtask": 6467,
      "Ġaus": 6468,
      "Ġapt": 6469,
      "Ġaunt": 6470,
      "Ġacho": 6471,
      "Ġacto": 6472,
      "Ġsed": 6473,
      "Ġsire": 6474,
      "ĠmÃ¡": 6475,
      "Ġmaintain": 6476,
      "rees": 6477,
      "rendo": 6478,
      "Ġdi": 6479,
      "Ġdow": 6480,
      "ĠdÃ£o": 6481,
      "Ġdri": 6482,
      "Ġdado": 6483,
      "Ġdying": 6484,
      "Ġwing": 6485,
      "Ġwide": 6486,
      "Ġwaking": 6487,
      "erby": 6488,
      "orias": 6489,
      "Ġcro": 6490,
      "Ġcher": 6491,
      "Ġcrim": 6492,
      "ĠcÃ´r": 6493,
      "Ġcaught": 6494,
      "Ġbade": 6495,
      "Ġbac": 6496,
      "Ġbail": 6497,
      "essel": 6498,
      "Ġpi": 6499,
      "Ġpad": 6500,
      "Ġpound": 6501,
      "Ġpurse": 6502,
      "Ġpier": 6503,
      "Ġfood": 6504,
      "Ġfrow": 6505,
      "Ġfun": 6506,
      "Ġfires": 6507,
      "Ġfancy": 6508,
      "Ġfiend": 6509,
      "Ġnisto": 6510,
      "enant": 6511,
      "enna": 6512,
      "llas": 6513,
      "ital": 6514,
      "itado": 6515,
      "itation": 6516,
      "Ġlot": 6517,
      "Ġlut": 6518,
      "asp": 6519,
      "Ġevent": 6520,
      "Ġetern": 6521,
      "osos": 6522,
      "osito": 6523,
      "Ġyond": 6524,
      "Ġyoke": 6525,
      "Ġhie": 6526,
      "Ġthird": 6527,
      "annos": 6528,
      "ancho": 6529,
      "vet": 6530,
      "vendo": 6531,
      "quis": 6532,
      "quiz": 6533,
      "ĠIa": 6534,
      "othes": 6535,
      "Ġgato": 6536,
      "rand": 6537,
      "rador": 6538,
      "seu": 6539,
      "sell": 6540,
      "Ġquanto": 6541,
      "Ġmelt": 6542,
      "Ġmedd": 6543,
      "Ġinv": 6544,
      "Ġindo": 6545,
      "Ġinvent": 6546,
      "Ġquerendo": 6547,
      "eder": 6548,
      "ald": 6549,
      "alter": 6550,
      "utenant": 6551,
      "ams": 6552,
      "icy": 6553,
      "icamente": 6554,
      "Ġvim": 6555,
      "Ġvul": 6556,
      "ĠvÃª": 6557,
      "Ġvessel": 6558,
      "Ġsees": 6559,
      "Ġseason": 6560,
      "Ġissu": 6561,
      "Ġreck": 6562,
      "Ġrejo": 6563,
      "ignt": 6564,
      "Ġforced": 6565,
      "Ġforfeit": 6566,
      "estre": 6567,
      "estava": 6568,
      "ourse": 6569,
      "ourth": 6570,
      "roll": 6571,
      "emais": 6572,
      "andal": 6573,
      "Ġsting": 6574,
      "Ġstro": 6575,
      "Ġstout": 6576,
      "Ġstret": 6577,
      "Ġstroke": 6578,
      "Ġstamp": 6579,
      "avens": 6580,
      "usion": 6581,
      "Ġsore": 6582,
      "Ġsole": 6583,
      "Ġsooth": 6584,
      "rias": 6585,
      "riam": 6586,
      "Ġlibras": 6587,
      "ilhe": 6588,
      "ilha": 6589,
      "peu": 6590,
      "Ġconsel": 6591,
      "Ġconference": 6592,
      "ulso": 6593,
      "mel": 6594,
      "run": 6595,
      "ruction": 6596,
      "Ġwhisper": 6597,
      "apÃ©": 6598,
      "ĠfaÃ§o": 6599,
      "Ġherd": 6600,
      "ĠAway": 6601,
      "ĠMin": 6602,
      "ela": 6603,
      "ĠRio": 6604,
      "ĠRosaline": 6605,
      "Ġshield": 6606,
      "ĠSr": 6607,
      "ĠSold": 6608,
      "Ġprat": 6609,
      "Ġknaves": 6610,
      "arece": 6611,
      "Ġalack": 6612,
      "Ġalike": 6613,
      "Ġalcan": 6614,
      "Ġalthough": 6615,
      "ĠOh": 6616,
      "Ġdish": 6617,
      "Ġric": 6618,
      "Ġrose": 6619,
      "Ġrato": 6620,
      "akest": 6621,
      "ĠGive": 6622,
      "ĠPor": 6623,
      "ĠDerby": 6624,
      "Ġsaida": 6625,
      "Ġsaude": 6626,
      "Ġlea": 6627,
      "Ġblunt": 6628,
      "Ġbrid": 6629,
      "Ġbranc": 6630,
      "ĠHo": 6631,
      "ĠVen": 6632,
      "Ġago": 6633,
      "Ġagree": 6634,
      "ĠacÃ§Ã£o": 6635,
      "Ġacaso": 6636,
      "Ġdesires": 6637,
      "Ġdescend": 6638,
      "Ġorator": 6639,
      "Ġunb": 6640,
      "Ġunc": 6641,
      "Ġung": 6642,
      "Ġunivers": 6643,
      "Ġunjust": 6644,
      "uns": 6645,
      "Ġsaying": 6646,
      "eix": 6647,
      "Ġenforce": 6648,
      "Ġenxug": 6649,
      "Ġexchange": 6650,
      "ivas": 6651,
      "iving": 6652,
      "ongs": 6653,
      "LIS": 6654,
      "osso": 6655,
      "Ġpeito": 6656,
      "ĠTitus": 6657,
      "Ġcontempt": 6658,
      "ustom": 6659,
      "Ġabide": 6660,
      "Ġaboard": 6661,
      "laÃ§Ãµes": 6662,
      "irect": 6663,
      "oraes": 6664,
      "harge": 6665,
      "maid": 6666,
      "Ġspr": 6667,
      "Ġsple": 6668,
      "Ġfeet": 6669,
      "Ġimage": 6670,
      "ĠFroth": 6671,
      "ĠroÃ§a": 6672,
      "Noble": 6673,
      "ĠWell": 6674,
      "Ġtempest": 6675,
      "Ġcommons": 6676,
      "Ġparting": 6677,
      "Ġpartly": 6678,
      "Off": 6679,
      "Ġplano": 6680,
      "Soft": 6681,
      "Ġrust": 6682,
      "Ġruled": 6683,
      "inta": 6684,
      "Ġrain": 6685,
      "Ġrare": 6686,
      "Ġflood": 6687,
      "bert": 6688,
      "berto": 6689,
      "Ġarte": 6690,
      "Ġassure": 6691,
      "Ġassust": 6692,
      "logo": 6693,
      "Ġtwain": 6694,
      "Ġbetray": 6695,
      "Ġbetimes": 6696,
      "acab": 6697,
      "Ġmesa": 6698,
      "Ġcheio": 6699,
      "Ġnewly": 6700,
      "Ġclim": 6701,
      "Ġteria": 6702,
      "Ġcalled": 6703,
      "Ġrestra": 6704,
      "Ġchase": 6705,
      "Ġcharac": 6706,
      "Ġslip": 6707,
      "Ġslaves": 6708,
      "Ġstanding": 6709,
      "Ġdissem": 6710,
      "thee": 6711,
      "Ġwrink": 6712,
      "Ġobst": 6713,
      "forced": 6714,
      "Ġbearing": 6715,
      "aints": 6716,
      "Ġescap": 6717,
      "ancol": 6718,
      "should": 6719,
      "Ġnative": 6720,
      "Ġdevagar": 6721,
      "ercy": 6722,
      "Ġintell": 6723,
      "Ġbrad": 6724,
      "Ġbrace": 6725,
      "ĠbraÃ§o": 6726,
      "Ġcorpo": 6727,
      "Ġaccident": 6728,
      "Ġaccrescent": 6729,
      "Ġtreasure": 6730,
      "icaÃ§Ã£o": 6731,
      "Ġsets": 6732,
      "Ġhousehold": 6733,
      "Ġrecre": 6734,
      "Ġpoderia": 6735,
      "Ġouvil": 6736,
      "Ġcurta": 6737,
      "Ġmetal": 6738,
      "master": 6739,
      "Ġputs": 6740,
      "Ġpowerful": 6741,
      "Ġviver": 6742,
      "Ġpedi": 6743,
      "Ġtail": 6744,
      "Ġcabo": 6745,
      "Ġproposito": 6746,
      "ĠattenÃ§Ã£o": 6747,
      "Ġdefence": 6748,
      "iety": 6749,
      "Ġpup": 6750,
      "Ġmistrust": 6751,
      "Ġboys": 6752,
      "Ġtenha": 6753,
      "Ġtenor": 6754,
      "Ġsmell": 6755,
      "Ġmorto": 6756,
      "Ġsecure": 6757,
      "Ġweeps": 6758,
      "Ġinfant": 6759,
      "Ġinfancia": 6760,
      "Lords": 6761,
      "Ġbelow": 6762,
      "Ġprimeiras": 6763,
      "Ġchamar": 6764,
      "Ġfalsehood": 6765,
      "Ġsovereignt": 6766,
      "ĠEram": 6767,
      "Ġdenuncia": 6768,
      "ouchsa": 6769,
      "Ġpena": 6770,
      "Twere": 6771,
      "ĠsituaÃ§Ã£o": 6772,
      "Ġsilent": 6773,
      "Ġsometimes": 6774,
      "Ġmerit": 6775,
      "Ġoaths": 6776,
      "Ġsuspect": 6777,
      "Ġfaithful": 6778,
      "ĠEmfim": 6779,
      "Ġsurely": 6780,
      "Ġphoto": 6781,
      "Ġinsinu": 6782,
      "Ġsacud": 6783,
      "aesar": 6784,
      "Ġinstruments": 6785,
      "Ġalliance": 6786,
      "Cannot": 6787,
      "Ġergu": 6788,
      "Ġregard": 6789,
      "Ġbarren": 6790,
      "Ġofficio": 6791,
      "Ġcreatura": 6792,
      "Ġbeholding": 6793,
      "Ġconhecia": 6794,
      "ĠNovo": 6795,
      "ourage": 6796,
      "Ġprett": 6797,
      "Ġdissesse": 6798,
      "Ġsingle": 6799,
      "Ġbreathed": 6800,
      "Ġforgive": 6801,
      "Ġweakness": 6802,
      "ullus": 6803,
      "Ġsickness": 6804,
      "orreu": 6805,
      "Ġmouths": 6806,
      "Ġbooks": 6807,
      "Ġtremble": 6808,
      "Ġprincipal": 6809,
      "Ġobedient": 6810,
      "alguma": 6811,
      "ĠsensaÃ§Ã£o": 6812,
      "ĠAnti": 6813,
      "Ġapprender": 6814,
      "Leave": 6815,
      "Ġpitch": 6816,
      "Ġcuidados": 6817,
      "yrrel": 6818,
      "Ġbeasts": 6819,
      "Ġdormir": 6820,
      "Ġcedo": 6821,
      "Ġtrumpet": 6822,
      "Ġoffended": 6823,
      "Ġsangue": 6824,
      "Ġcele": 6825,
      "Ġestudos": 6826,
      "Ġunkind": 6827,
      "Ġvelhas": 6828,
      "Ġdetermine": 6829,
      "Ġdetermined": 6830,
      "Ġaccording": 6831,
      "Ġdignity": 6832,
      "Ġviuva": 6833,
      "Ġreverence": 6834,
      "ĠElla": 6835,
      "ĠsaÃŃa": 6836,
      "ĠcomeÃ§ou": 6837,
      "Ġentertainment": 6838,
      "tempo": 6839,
      "Ġomnib": 6840,
      "Ġvestido": 6841,
      "Ġsuperlat": 6842,
      "Ġprophet": 6843,
      "Ġholp": 6844,
      "Ġgently": 6845,
      "Ġpilgrim": 6846,
      "Ġmelancho": 6847,
      "Ġfairest": 6848,
      "Ġreconci": 6849,
      "Ġrapazes": 6850,
      "Ġstabb": 6851,
      "Ġdisgrace": 6852,
      "Ġimpossible": 6853,
      "Ġlength": 6854,
      "Ġtyranny": 6855,
      "nossos": 6856,
      "ĠExeter": 6857,
      "Ġapostolico": 6858,
      "Ġdoutor": 6859,
      "Ġeterna": 6860,
      "Ġdeceit": 6861,
      "ĠSicilia": 6862,
      "Ġtreacherous": 6863,
      "Ġmocidade": 6864,
      "ĠDorset": 6865,
      "Ġespirito": 6866,
      "Ġfashion": 6867,
      "ĠMilan": 6868,
      "Ġjourney": 6869,
      "Ġincrease": 6870,
      "Ġunhappy": 6871,
      "Ġchicara": 6872,
      "Ġcommission": 6873,
      "Ġvirgin": 6874,
      "Ġpatricians": 6875,
      "alisbury": 6876,
      "ĠMayor": 6877,
      "Ġappetite": 6878,
      "graphia": 6879,
      "Ġmonument": 6880,
      "Volsce": 6881,
      "Ġfroward": 6882,
      "ĠSoldier": 6883,
      "Ġsovereignty": 6884,
      "Ġomnibus": 6885,
      "Ġmelancholy": 6886,
      "),": 6887,
      "**": 6888,
      "AD": 6889,
      "Acc": 6890,
      "Cond": 6891,
      "Cry": 6892,
      "CLE": 6893,
      "Creio": 6894,
      "Dis": 6895,
      "Down": 6896,
      "Draw": 6897,
      "Disp": 6898,
      "Each": 6899,
      "Fal": 6900,
      "FRO": 6901,
      "Fair": 6902,
      "Foi": 6903,
      "Hail": 6904,
      "IL": 6905,
      "IT": 6906,
      "King": 6907,
      "Lay": 6908,
      "Lie": 6909,
      "Lady": 6910,
      "Many": 6911,
      "Na": 6912,
      "OMEN": 6913,
      "PH": 6914,
      "Pet": 6915,
      "Sc": 6916,
      "Sm": 6917,
      "Somet": 6918,
      "Tal": 6919,
      "Tush": 6920,
      "UR": 6921,
      "UGH": 6922,
      "Warwick": 6923,
      "aure": 6924,
      "action": 6925,
      "ahi": 6926,
      "bat": 6927,
      "bei": 6928,
      "bation": 6929,
      "camente": 6930,
      "ceram": 6931,
      "cary": 6932,
      "cidos": 6933,
      "disp": 6934,
      "eat": 6935,
      "foot": 6936,
      "gl": 6937,
      "gn": 6938,
      "give": 6939,
      "iencia": 6940,
      "kind": 6941,
      "lic": 6942,
      "min": 6943,
      "mong": 6944,
      "pod": 6945,
      "pret": 6946,
      "padre": 6947,
      "ross": 6948,
      "rough": 6949,
      "say": 6950,
      "than": 6951,
      "tique": 6952,
      "ux": 6953,
      "vocÃª": 6954,
      "vior": 6955,
      "ws": 6956,
      "Ġze": 6957,
      "Ġessas": 6958,
      "Ġtall": 6959,
      "Ġtarry": 6960,
      "Ġtaunt": 6961,
      "Ġtakes": 6962,
      "Ġaz": 6963,
      "Ġame": 6964,
      "Ġaxe": 6965,
      "Ġsqu": 6966,
      "Ġsnow": 6967,
      "Ġmood": 6968,
      "Ġmirth": 6969,
      "oubt": 6970,
      "Ġdon": 6971,
      "Ġdat": 6972,
      "Ġdito": 6973,
      "Ġdessas": 6974,
      "hand": 6975,
      "Ġwid": 6976,
      "Ġwest": 6977,
      "Ġwake": 6978,
      "Ġwink": 6979,
      "ndeu": 6980,
      "ismos": 6981,
      "Ġcos": 6982,
      "Ġcav": 6983,
      "Ġciv": 6984,
      "Ġbul": 6985,
      "Ġbred": 6986,
      "Ġbuck": 6987,
      "Ġblem": 6988,
      "Ġbaix": 6989,
      "Ġbilhe": 6990,
      "Ġpom": 6991,
      "Ġpath": 6992,
      "Ġpause": 6993,
      "Ġope": 6994,
      "Ġoak": 6995,
      "Ġfer": 6996,
      "Ġfat": 6997,
      "Ġfest": 6998,
      "Ġfish": 6999,
      "Ġnod": 7000,
      "Ġnest": 7001,
      "Ġnap": 7002,
      "arou": 7003,
      "arios": 7004,
      "encias": 7005,
      "envol": 7006,
      "itava": 7007,
      "itable": 7008,
      "itual": 7009,
      "Ġlac": 7010,
      "omia": 7011,
      "omach": 7012,
      "Ġyes": 7013,
      "Ġhorn": 7014,
      "Ġthir": 7015,
      "Ġthick": 7016,
      "Ġthread": 7017,
      "aning": 7018,
      "Ġtoad": 7019,
      "Ġtoil": 7020,
      "Ġtooth": 7021,
      "Ġtotal": 7022,
      "quando": 7023,
      "ota": 7024,
      "Ġdever": 7025,
      "Ġdeck": 7026,
      "Ġdearest": 7027,
      "imble": 7028,
      "Ġquad": 7029,
      "Ġmeia": 7030,
      "Ġmeias": 7031,
      "adores": 7032,
      "cedeu": 7033,
      "Ġinfection": 7034,
      "Ġquerer": 7035,
      "utes": 7036,
      "idÃ£o": 7037,
      "ames": 7038,
      "icles": 7039,
      "Ġvill": 7040,
      "Ġvies": 7041,
      "Ġvara": 7042,
      "Ġvindo": 7043,
      "Ġseiz": 7044,
      "Ġseldom": 7045,
      "ithmet": 7046,
      "Ġcomsigo": 7047,
      "Ġreap": 7048,
      "igu": 7049,
      "igem": 7050,
      "Ġfora": 7051,
      "Ġforso": 7052,
      "iago": 7053,
      "odas": 7054,
      "esto": 7055,
      "illy": 7056,
      "illing": 7057,
      "rop": 7058,
      "herit": 7059,
      "eming": 7060,
      "emente": 7061,
      "empre": 7062,
      "urb": 7063,
      "Ġstick": 7064,
      "Ġstumble": 7065,
      "ushes": 7066,
      "Ġhavendo": 7067,
      "Ġnovo": 7068,
      "Ã§ou": 7069,
      "Ġlift": 7070,
      "Ġliken": 7071,
      "ARN": 7072,
      "antast": 7073,
      "pela": 7074,
      "Ġconcer": 7075,
      "Ġconcord": 7076,
      "Ġann": 7077,
      "olesc": 7078,
      "ulch": 7079,
      "Ġsusto": 7080,
      "Ġsullen": 7081,
      "rua": 7082,
      "Ġlover": 7083,
      "Ġloja": 7084,
      "Ġlovest": 7085,
      "Ġwhit": 7086,
      "Ġwholesome": 7087,
      "Ġalleg": 7088,
      "Ġdall": 7089,
      "Through": 7090,
      "ĠfaÃ§a": 7091,
      "Ġfawn": 7092,
      "thing": 7093,
      "ĠAh": 7094,
      "ĠAr": 7095,
      "Ġatre": 7096,
      "Ġatal": 7097,
      "elo": 7098,
      "Ġshri": 7099,
      "ĠSc": 7100,
      "ĠSu": 7101,
      "ĠSim": 7102,
      "ĠSalisbury": 7103,
      "Ġknot": 7104,
      "Ġjot": 7105,
      "arem": 7106,
      "Ġalhe": 7107,
      "ĠalÃ©m": 7108,
      "ĠOra": 7109,
      "Ġdisgu": 7110,
      "Ġdismal": 7111,
      "Ġdisfar": 7112,
      "deix": 7113,
      "Ġrig": 7114,
      "Ġride": 7115,
      "Ġrans": 7116,
      "Ġmanage": 7117,
      "seless": 7118,
      "ortune": 7119,
      "ĠPe": 7120,
      "ĠPasse": 7121,
      "ĠPadre": 7122,
      "ieves": 7123,
      "ĠemoÃ§Ã£o": 7124,
      "ĠLart": 7125,
      "Ġleve": 7126,
      "Ġestend": 7127,
      "Ġestiver": 7128,
      "ĠBr": 7129,
      "ĠHis": 7130,
      "Ġdesv": 7131,
      "Ġdescer": 7132,
      "Ġdescent": 7133,
      "Ġdesconf": 7134,
      "Ġdesesper": 7135,
      "ĠcanapÃ©": 7136,
      "cies": 7137,
      "Ġperhaps": 7138,
      "Ġhated": 7139,
      "LOUGH": 7140,
      "Ġunwill": 7141,
      "Ġuncles": 7142,
      "unci": 7143,
      "Ġuso": 7144,
      "Ġswain": 7145,
      "Ġexist": 7146,
      "Ġexper": 7147,
      "Ġespect": 7148,
      "Heaven": 7149,
      "istas": 7150,
      "ĠNunca": 7151,
      "Ġseriam": 7152,
      "Ġserved": 7153,
      "ersu": 7154,
      "Whether": 7155,
      "ĠpeÃ§o": 7156,
      "Ġpeguei": 7157,
      "Ġvelhos": 7158,
      "ages": 7159,
      "agens": 7160,
      "ĠTar": 7161,
      "ĠTur": 7162,
      "ĠTell": 7163,
      "ĠTyrrel": 7164,
      "usto": 7165,
      "Ġabra": 7166,
      "Ġabused": 7167,
      "ecia": 7168,
      "Ġshoulder": 7169,
      "irei": 7170,
      "Ġmarks": 7171,
      "rang": 7172,
      "Ġprepar": 7173,
      "Ġprefer": 7174,
      "Ġspl": 7175,
      "Ġspy": 7176,
      "Ġdeaths": 7177,
      "Ġfeather": 7178,
      "Ġfeita": 7179,
      "ĠpoÃ§o": 7180,
      "Ġheartily": 7181,
      "ixÃ£o": 7182,
      "ontes": 7183,
      "Ġadventure": 7184,
      "Ġadivinha": 7185,
      "Ġadolesc": 7186,
      "ĠWIL": 7187,
      "Ġpaes": 7188,
      "Ġpapeis": 7189,
      "Ġrail": 7190,
      "Ġraised": 7191,
      "Ġmov": 7192,
      "Ġcoff": 7193,
      "Ġwarri": 7194,
      "Ġpassava": 7195,
      "iamente": 7196,
      "Ġtrag": 7197,
      "acc": 7198,
      "itten": 7199,
      "Ġmesmas": 7200,
      "Ġchegar": 7201,
      "leased": 7202,
      "Ġclara": 7203,
      "Ġclothes": 7204,
      "irava": 7205,
      "Ġchallen": 7206,
      "soever": 7207,
      "arts": 7208,
      "Ġsweeter": 7209,
      "ĠsÃ³mente": 7210,
      "Ġjoven": 7211,
      "ips": 7212,
      "Ġobsequ": 7213,
      "Ġobsc": 7214,
      "Ġimpa": 7215,
      "ĠLords": 7216,
      "Ġappointed": 7217,
      "Ġpleasing": 7218,
      "ĠMariana": 7219,
      "Ġheavenly": 7220,
      "Ġsubtle": 7221,
      "Ġdevotion": 7222,
      "Ġbrand": 7223,
      "Ġcoron": 7224,
      "Ġaccursed": 7225,
      "Ġbegan": 7226,
      "Ġharsh": 7227,
      "Ġparecer": 7228,
      "Ġvozes": 7229,
      "Ġvisage": 7230,
      "Ġrecus": 7231,
      "Ġcaras": 7232,
      "Ġkeeper": 7233,
      "Ġfazem": 7234,
      "Ġretor": 7235,
      "Ġretire": 7236,
      "ĠEsc": 7237,
      "Ġyounger": 7238,
      "Ġyoungest": 7239,
      "horas": 7240,
      "Ġdearly": 7241,
      "Ġjustamente": 7242,
      "ĠjustiÃ§a": 7243,
      "RIAN": 7244,
      "atorio": 7245,
      "Proc": 7246,
      "Ġpossu": 7247,
      "Ġhelm": 7248,
      "fortune": 7249,
      "Ġrights": 7250,
      "Ġminds": 7251,
      "Ġmischance": 7252,
      "Ġinterrog": 7253,
      "Ġpuro": 7254,
      "Ġperguntava": 7255,
      "Ġservir": 7256,
      "Ġreceio": 7257,
      "terer": 7258,
      "Ġmeeting": 7259,
      "ĠEngenho": 7260,
      "Ġafternoon": 7261,
      "Ġcalado": 7262,
      "Ġvirtudes": 7263,
      "Ġmodesty": 7264,
      "Ġgriefs": 7265,
      "Ġdram": 7266,
      "Anon": 7267,
      "Uncle": 7268,
      "Ġbatalha": 7269,
      "Ġsteeds": 7270,
      "Ġsupply": 7271,
      "Ġrefuse": 7272,
      "Ġvoltar": 7273,
      "Commend": 7274,
      "Ġcareless": 7275,
      "Ġcompanhe": 7276,
      "Ġcompanhia": 7277,
      "Ġnatureza": 7278,
      "Ġdistra": 7279,
      "Ġcountrymen": 7280,
      "Ġcraves": 7281,
      "Ġcraft": 7282,
      "Ġpenna": 7283,
      "ushy": 7284,
      "Ġwindows": 7285,
      "Ġpensando": 7286,
      "Ġstranger": 7287,
      "Ġespant": 7288,
      "Ġmonstrous": 7289,
      "Ġbeauteous": 7290,
      "Ġyielded": 7291,
      "Ġappeal": 7292,
      "Ġripe": 7293,
      "ĠEstava": 7294,
      "Ġcommonwe": 7295,
      "Ġdirection": 7296,
      "Ġburst": 7297,
      "aments": 7298,
      "Didst": 7299,
      "Ġgrowing": 7300,
      "Ġtomar": 7301,
      "Ġfamous": 7302,
      "Ġextre": 7303,
      "Ġextraord": 7304,
      "Ġheirs": 7305,
      "Ġmedico": 7306,
      "Ġinstruction": 7307,
      "Ġpoints": 7308,
      "Ġconsentiu": 7309,
      "Ġtornei": 7310,
      "Ġtrusty": 7311,
      "Ġstronger": 7312,
      "prop": 7313,
      "ĠHeaven": 7314,
      "Ġforeign": 7315,
      "Ġmemory": 7316,
      "Ġincen": 7317,
      "Ġmulheres": 7318,
      "Ġrespondi": 7319,
      "Ġredress": 7320,
      "Ġliberal": 7321,
      "Ġtrespass": 7322,
      "ĠlenÃ§o": 7323,
      "Ġfeeling": 7324,
      "Ġsatisfy": 7325,
      "Ġplainly": 7326,
      "Ġvirtues": 7327,
      "Ġfourteen": 7328,
      "Ġlimit": 7329,
      "Ġlabios": 7330,
      "Ġselfsame": 7331,
      "Ġtrembling": 7332,
      "Ġfrowns": 7333,
      "Ġentrada": 7334,
      "Ġolhava": 7335,
      "Ġbeijo": 7336,
      "Ġservants": 7337,
      "Ġbabes": 7338,
      "Ġbridegroom": 7339,
      "Ġconceal": 7340,
      "Ġgallant": 7341,
      "aturalmente": 7342,
      "Ġnovas": 7343,
      "Ġneglect": 7344,
      "ĠperdÃ£o": 7345,
      "Ġexplicar": 7346,
      "Ġpolicy": 7347,
      "Ġcarta": 7348,
      "Ġbigger": 7349,
      "Ġfierce": 7350,
      "Among": 7351,
      "Ġdiffere": 7352,
      "Ġforswear": 7353,
      "Ġwriting": 7354,
      "Ġvaranda": 7355,
      "Ġshadows": 7356,
      "ĠElle": 7357,
      "ĠVienna": 7358,
      "Ġscold": 7359,
      "othecary": 7360,
      "Ġtrabalho": 7361,
      "ggest": 7362,
      "Ġedge": 7363,
      "Ġremove": 7364,
      "Ġremoved": 7365,
      "Ġabsolute": 7366,
      "Better": 7367,
      "Ġfalei": 7368,
      "Ġchaste": 7369,
      "particular": 7370,
      "Ġfairer": 7371,
      "Ġshrewd": 7372,
      "Ġacquaint": 7373,
      "ĠimaginaÃ§Ã£o": 7374,
      "banished": 7375,
      "Ġsucceed": 7376,
      "ĠPedro": 7377,
      "murro": 7378,
      "Ġsapatos": 7379,
      "Ġeagle": 7380,
      "Ġgaze": 7381,
      "Ġflatterer": 7382,
      "Ġtorture": 7383,
      "Ġsepulch": 7384,
      "Ġsemana": 7385,
      "Ġballad": 7386,
      "Ġfuturo": 7387,
      "Ġdedic": 7388,
      "Ġrenowned": 7389,
      "Ġarrepend": 7390,
      "Ġadversaries": 7391,
      "Ġremorse": 7392,
      "Ġcollegio": 7393,
      "Return": 7394,
      "Remember": 7395,
      "Ġwondrous": 7396,
      "arenta": 7397,
      "Ġperalta": 7398,
      "perguntou": 7399,
      "Ġpenitent": 7400,
      "Ġprivilege": 7401,
      "Ġdifficuldade": 7402,
      "ĠItaly": 7403,
      "Ġrepeal": 7404,
      "Ġshroud": 7405,
      "Ġalvoro": 7406,
      "Ġexercise": 7407,
      "Ġpurchase": 7408,
      "Ġgabinete": 7409,
      "Ġmystery": 7410,
      "Ġrebellion": 7411,
      "ĠPerdita": 7412,
      "ĠConspirator": 7413,
      "Coriolanus": 7414,
      "Ġdowry": 7415,
      "Ġpierce": 7416,
      "Ġvulgar": 7417,
      "Ġstrokes": 7418,
      "Ġleague": 7419,
      "ouchsafe": 7420,
      "ADRIAN": 7421,
      "CLEOMEN": 7422,
      "FROTH": 7423,
      "Ġcivil": 7424,
      "Ġthirty": 7425,
      "ĠLartius": 7426,
      "LOUGHBY": 7427,
      "ĠWILLOUGHBY": 7428,
      "CLEOMENES": 7429,
      "AM": 7430,
      "BARN": 7431,
      "Courage": 7432,
      "Div": 7433,
      "Eng": 7434,
      "Ezequiel": 7435,
      "Fl": 7436,
      "Find": 7437,
      "Fui": 7438,
      "GO": 7439,
      "Get": 7440,
      "Lu": 7441,
      "Men": 7442,
      "Mist": 7443,
      "Making": 7444,
      "Pur": 7445,
      "PÃ³de": 7446,
      "Rather": 7447,
      "RUT": 7448,
      "Sound": 7449,
      "Tra": 7450,
      "Tranio": 7451,
      "Vou": 7452,
      "Villain": 7453,
      "ae": 7454,
      "aos": 7455,
      "aÃ§a": 7456,
      "aqui": 7457,
      "bot": 7458,
      "bast": 7459,
      "bility": 7460,
      "cous": 7461,
      "cast": 7462,
      "call": 7463,
      "cert": 7464,
      "cilia": 7465,
      "coraÃ§Ã£o": 7466,
      "culos": 7467,
      "del": 7468,
      "done": 7469,
      "ders": 7470,
      "diss": 7471,
      "duke": 7472,
      "dict": 7473,
      "ele": 7474,
      "fa": 7475,
      "from": 7476,
      "foi": 7477,
      "ghan": 7478,
      "great": 7479,
      "jas": 7480,
      "jan": 7481,
      "jÃ¡": 7482,
      "lict": 7483,
      "may": 7484,
      "made": 7485,
      "mado": 7486,
      "nken": 7487,
      "pÃ§Ã£o": 7488,
      "pesso": 7489,
      "padas": 7490,
      "pardon": 7491,
      "rity": 7492,
      "ratch": 7493,
      "sp": 7494,
      "sur": 7495,
      "sire": 7496,
      "sac": 7497,
      "take": 7498,
      "tanto": 7499,
      "vive": 7500,
      "vised": 7501,
      "Ã¨": 7502,
      "Ġtig": 7503,
      "Ġtum": 7504,
      "Ġtesta": 7505,
      "Ġtirar": 7506,
      "Ġavis": 7507,
      "hel": 7508,
      "hen": 7509,
      "here": 7510,
      "hens": 7511,
      "Ġsat": 7512,
      "Ġsava": 7513,
      "Ġsantos": 7514,
      "Ġmess": 7515,
      "Ġmant": 7516,
      "Ġmain": 7517,
      "Ġmont": 7518,
      "inst": 7519,
      "inava": 7520,
      "inate": 7521,
      "inei": 7522,
      "rece": 7523,
      "Ġdot": 7524,
      "Ġdando": 7525,
      "Ġdower": 7526,
      "Ġdiver": 7527,
      "Ġdivers": 7528,
      "haver": 7529,
      "Ġward": 7530,
      "Ġwaves": 7531,
      "Ġwakes": 7532,
      "erra": 7533,
      "orio": 7534,
      "orough": 7535,
      "ising": 7536,
      "ishop": 7537,
      "Ġcat": 7538,
      "Ġcad": 7539,
      "Ġcord": 7540,
      "Ġcrow": 7541,
      "Ġbore": 7542,
      "Ġbag": 7543,
      "Ġbrown": 7544,
      "Ġborrow": 7545,
      "esa": 7546,
      "esu": 7547,
      "Ġpas": 7548,
      "Ġpent": 7549,
      "Ġpear": 7550,
      "Ġfro": 7551,
      "Ġful": 7552,
      "Ġfret": 7553,
      "Ġfantast": 7554,
      "Ġnice": 7555,
      "Ġnesse": 7556,
      "Ġnupt": 7557,
      "ena": 7558,
      "itious": 7559,
      "itiff": 7560,
      "Ġlh": 7561,
      "Ġlig": 7562,
      "Ġlur": 7563,
      "Ġlower": 7564,
      "Ġluck": 7565,
      "ased": 7566,
      "onica": 7567,
      "osen": 7568,
      "Ġyon": 7569,
      "ĠhÃ£o": 7570,
      "Ġhig": 7571,
      "Ġhind": 7572,
      "Ġhire": 7573,
      "Ġhoney": 7574,
      "Ġthin": 7575,
      "Ġthirst": 7576,
      "Ġthumb": 7577,
      "ana": 7578,
      "anho": 7579,
      "Ġtoada": 7580,
      "Ġtocava": 7581,
      "qua": 7582,
      "hath": 7583,
      "Ġheat": 7584,
      "Ġheap": 7585,
      "Ġheels": 7586,
      "Ġgn": 7587,
      "Ġgen": 7588,
      "Ġgid": 7589,
      "ativamente": 7590,
      "Ġdecre": 7591,
      "Ġdeaf": 7592,
      "Ġanda": 7593,
      "owl": 7594,
      "rado": 7595,
      "sey": 7596,
      "imou": 7597,
      "ĠquÃª": 7598,
      "Ġbere": 7599,
      "Ġbefall": 7600,
      "Ġink": 7601,
      "Ġinqui": 7602,
      "Ġinvest": 7603,
      "Ġhare": 7604,
      "Ġhaught": 7605,
      "Ġqueix": 7606,
      "alidade": 7607,
      "idar": 7608,
      "aming": 7609,
      "icul": 7610,
      "ĠvÃ£o": 7611,
      "Ġvive": 7612,
      "Ġvento": 7613,
      "Ġvaria": 7614,
      "Ġsejam": 7615,
      "Ġnoted": 7616,
      "Ġnoticias": 7617,
      "Ġreje": 7618,
      "ĠrelaÃ§Ãµes": 7619,
      "keley": 7620,
      "estar": 7621,
      "ouring": 7622,
      "hern": 7623,
      "Ġwithdraw": 7624,
      "Ġdove": 7625,
      "Ġdonde": 7626,
      "Ġdogs": 7627,
      "Ġdozen": 7628,
      "ĠdoenÃ§a": 7629,
      "Ġstale": 7630,
      "Ġstern": 7631,
      "Ġstomach": 7632,
      "order": 7633,
      "chief": 7634,
      "ushing": 7635,
      "Ġsoce": 7636,
      "Ġsoci": 7637,
      "Ġnobility": 7638,
      "INE": 7639,
      "Ã§ada": 7640,
      "riel": 7641,
      "rible": 7642,
      "ĠCo": 7643,
      "ĠCounty": 7644,
      "ĠCaesar": 7645,
      "Ġliking": 7646,
      "Ġlivery": 7647,
      "orei": 7648,
      "ilence": 7649,
      "ilidade": 7650,
      "ilhas": 7651,
      "pear": 7652,
      "pequen": 7653,
      "Ġconceive": 7654,
      "ainst": 7655,
      "aindo": 7656,
      "Ġanointed": 7657,
      "Ġanterior": 7658,
      "uls": 7659,
      "ulho": 7660,
      "Ġsup": 7661,
      "Ġsuits": 7662,
      "Ġshare": 7663,
      "Ġshapes": 7664,
      "Ġmaiores": 7665,
      "Ġwills": 7666,
      "guard": 7667,
      "Ġwhores": 7668,
      "Whiles": 7669,
      "Ġhers": 7670,
      "ardel": 7671,
      "Ġneat": 7672,
      "Ġamare": 7673,
      "Ġamiss": 7674,
      "Ġminute": 7675,
      "ĠMonica": 7676,
      "Ġshallow": 7677,
      "ables": 7678,
      "Ġshop": 7679,
      "Ġshines": 7680,
      "ĠSÃ£o": 7681,
      "ĠSee": 7682,
      "ĠShore": 7683,
      "Ġjur": 7684,
      "ended": 7685,
      "Ġalar": 7686,
      "Ġalta": 7687,
      "Ġalms": 7688,
      "ĠOffic": 7689,
      "Ġdisto": 7690,
      "dev": 7691,
      "Ġmaneiras": 7692,
      "Ġupright": 7693,
      "Ġgoods": 7694,
      "ĠGree": 7695,
      "ĠPlease": 7696,
      "ĠPETER": 7697,
      "iege": 7698,
      "Ġemp": 7699,
      "ĠLicio": 7700,
      "ĠLaure": 7701,
      "ĠDes": 7702,
      "ĠDido": 7703,
      "ĠDisse": 7704,
      "Ġarran": 7705,
      "Ġarrest": 7706,
      "Ġarithmet": 7707,
      "Ġblast": 7708,
      "Ġblaz": 7709,
      "Ġbran": 7710,
      "ĠBy": 7711,
      "ĠBar": 7712,
      "ĠBur": 7713,
      "ĠBast": 7714,
      "ĠHom": 7715,
      "ĠVal": 7716,
      "ĠVamos": 7717,
      "Ġagre": 7718,
      "Ġages": 7719,
      "Ġaggra": 7720,
      "Ġdesappare": 7721,
      "Ġcancell": 7722,
      "Ġsirs": 7723,
      "Ġperdo": 7724,
      "eping": 7725,
      "Ġorn": 7726,
      "Ġunse": 7727,
      "Ġunst": 7728,
      "Ġthereby": 7729,
      "Ġprova": 7730,
      "Ġprocess": 7731,
      "Ġproclam": 7732,
      "unha": 7733,
      "alli": 7734,
      "ARDINE": 7735,
      "Ġswore": 7736,
      "Ġsweat": 7737,
      "ivia": 7738,
      "Ġesfor": 7739,
      "Ġespa": 7740,
      "Ġlets": 7741,
      "aved": 7742,
      "Ġserp": 7743,
      "Ġserio": 7744,
      "Ġspect": 7745,
      "Ġworm": 7746,
      "Ġpeev": 7747,
      "Ġvem": 7748,
      "Ġvendo": 7749,
      "aged": 7750,
      "ustice": 7751,
      "Ġabert": 7752,
      "Ġabuse": 7753,
      "Ġlikely": 7754,
      "iced": 7755,
      "harged": 7756,
      "...?": 7757,
      "occ": 7758,
      "ocate": 7759,
      "Ġprete": 7760,
      "Ġpreced": 7761,
      "Ġspit": 7762,
      "Ġcasada": 7763,
      "Ġimita": 7764,
      "Ġtrunk": 7765,
      "Ġoffices": 7766,
      "aughter": 7767,
      "aughan": 7768,
      "Ġsomewhat": 7769,
      "Ġboas": 7770,
      "Ġboast": 7771,
      "ĠFare": 7772,
      "ĠFiz": 7773,
      "ĠFui": 7774,
      "ĠWilt": 7775,
      "Ġparted": 7776,
      "Offic": 7777,
      "Ġpage": 7778,
      "Ġresc": 7779,
      "ambio": 7780,
      "Ġtelling": 7781,
      "Ġthinking": 7782,
      "Ġlooked": 7783,
      "Ġrum": 7784,
      "Ġruas": 7785,
      "Ġwhereon": 7786,
      "Ġrack": 7787,
      "Ġflow": 7788,
      "Ġflint": 7789,
      "Ġflourish": 7790,
      "loves": 7791,
      "Ġcoch": 7792,
      "Ġrepro": 7793,
      "Ġreply": 7794,
      "Ġrepose": 7795,
      "Ġreprod": 7796,
      "Whereto": 7797,
      "Ġfearing": 7798,
      "Ġbreed": 7799,
      "assemos": 7800,
      "Ġconsort": 7801,
      "ĠapÃ³s": 7802,
      "Ġcheap": 7803,
      "Ġgreatness": 7804,
      "Ġcompr": 7805,
      "clus": 7806,
      "araÃ§Ã£o": 7807,
      "irando": 7808,
      "ainty": 7809,
      "Ġsenseless": 7810,
      "Ġgraced": 7811,
      "Ġmater": 7812,
      "Ġsentir": 7813,
      "Ġsubd": 7814,
      "ercing": 7815,
      "Ġinteg": 7816,
      "Ġchildish": 7817,
      "ĠQuem": 7818,
      "Ġmadness": 7819,
      "ĠirÃ¡": 7820,
      "Ġbeget": 7821,
      "nock": 7822,
      "Ġparedes": 7823,
      "Ġpareciam": 7824,
      "Ġvisto": 7825,
      "Ġrecol": 7826,
      "Ġcarried": 7827,
      "alties": 7828,
      "Ġfazendo": 7829,
      "Ġcourte": 7830,
      "Ġprompto": 7831,
      "Ġpromett": 7832,
      "Ġplaces": 7833,
      "Ġfortun": 7834,
      "Ġantigo": 7835,
      "Ġantigas": 7836,
      "Ġouvira": 7837,
      "menos": 7838,
      "Ġmetade": 7839,
      "garismos": 7840,
      "Ġbank": 7841,
      "Ġcaus": 7842,
      "ĠcaÃŃ": 7843,
      "Ġcaitiff": 7844,
      "Ġtrif": 7845,
      "Ġbacks": 7846,
      "Ġproport": 7847,
      "twill": 7848,
      "Ġpossa": 7849,
      "Ġforthwith": 7850,
      "Ġopus": 7851,
      "Ġcharm": 7852,
      "Ġsomma": 7853,
      "Ġlaws": 7854,
      "Ġeramos": 7855,
      "Does": 7856,
      "Ġroyalty": 7857,
      "ĠAnne": 7858,
      "ĠcreanÃ§as": 7859,
      "Ġlightning": 7860,
      "Ġbesides": 7861,
      "ĠficÃ¡mos": 7862,
      "Ġhappily": 7863,
      "Ġreceber": 7864,
      "Ġsorrows": 7865,
      "Ġfossem": 7866,
      "Ġlesser": 7867,
      "Ġcaps": 7868,
      "Ġprice": 7869,
      "Ġdispens": 7870,
      "hamed": 7871,
      "Ġverdadeira": 7872,
      "Ġsleeping": 7873,
      "Ġdiscourse": 7874,
      "Ġcareful": 7875,
      "Ġcompanion": 7876,
      "Ġdistancia": 7877,
      "Ġwanting": 7878,
      "Ġpraises": 7879,
      "Ġstrive": 7880,
      "Att": 7881,
      "Ġdivida": 7882,
      "Ġbreathing": 7883,
      "Ġgrew": 7884,
      "Ġhangs": 7885,
      "Ġlevasse": 7886,
      "Ġespera": 7887,
      "supp": 7888,
      "Ġmonster": 7889,
      "Ġmonarch": 7890,
      "Ġbeaut": 7891,
      "ĠillusÃ£o": 7892,
      "Ġsuspirou": 7893,
      "prime": 7894,
      "Ġdrunken": 7895,
      "Ġesperava": 7896,
      "Ġesperando": 7897,
      "ĠesperanÃ§a": 7898,
      "ĠesperanÃ§as": 7899,
      "ĠresoluÃ§Ã£o": 7900,
      "Ġburnt": 7901,
      "Ġqueriam": 7902,
      "Ġsooner": 7903,
      "ĠSenhor": 7904,
      "IDAM": 7905,
      "Ġsadness": 7906,
      "Ġsights": 7907,
      "Ġfizera": 7908,
      "Ġqualidades": 7909,
      "seminario": 7910,
      "Ġtomorrow": 7911,
      "Ġoccup": 7912,
      "Ġfamiliar": 7913,
      "Ġinsist": 7914,
      "Ġadmira": 7915,
      "Ġexecute": 7916,
      "Ġprecisa": 7917,
      "ĠbenÃ§Ã£o": 7918,
      "prov": 7919,
      "Ġnumer": 7920,
      "Ġautos": 7921,
      "Ġspoil": 7922,
      "Ġtroc": 7923,
      "Ġofficers": 7924,
      "Ġbelleza": 7925,
      "Ġultimos": 7926,
      "Ġpequenos": 7927,
      "brir": 7928,
      "ĠtranÃ§as": 7929,
      "Ġpagar": 7930,
      "Ġpaginas": 7931,
      "calus": 7932,
      "ramed": 7933,
      "Ġrapier": 7934,
      "validos": 7935,
      "Ġalegre": 7936,
      "Ġnecessity": 7937,
      "Ġlimbs": 7938,
      "Ġburns": 7939,
      "Ġburning": 7940,
      "Ġclaros": 7941,
      "incÃ§Ã£o": 7942,
      "Ġmethought": 7943,
      "Ġblessing": 7944,
      "Ġsuccession": 7945,
      "Ġsenses": 7946,
      "Ġcertamente": 7947,
      "Ġinjury": 7948,
      "ĠAntes": 7949,
      "ĠAntonio": 7950,
      "Ġapprehend": 7951,
      "Ġinclined": 7952,
      "Ġimperial": 7953,
      "Ġviolence": 7954,
      "Ġtriumphant": 7955,
      "Ġbitterly": 7956,
      "Ġapertar": 7957,
      "Ġpitiful": 7958,
      "Ġjanellas": 7959,
      "Ġremedio": 7960,
      "Ġtorch": 7961,
      "Ġactions": 7962,
      "Ġrebels": 7963,
      "ribunes": 7964,
      "ĠJoÃ£o": 7965,
      "Ġmidnight": 7966,
      "Ġdurante": 7967,
      "ĠAlgu": 7968,
      "Ġpossession": 7969,
      "marias": 7970,
      "Ġurge": 7971,
      "Ġtransport": 7972,
      "Play": 7973,
      "Ġlargo": 7974,
      "Ġfugir": 7975,
      "Ġsubstance": 7976,
      "Ġexecutioner": 7977,
      "Ġignorance": 7978,
      "March": 7979,
      "Marcius": 7980,
      "Methought": 7981,
      "Ġdebaixo": 7982,
      "ĠConst": 7983,
      "Ġbleeding": 7984,
      "Ġengan": 7985,
      "Ġchurchyard": 7986,
      "Ġescripto": 7987,
      "Ġsaints": 7988,
      "Ġmutin": 7989,
      "headed": 7990,
      "Ġbottom": 7991,
      "Ġrank": 7992,
      "Ġunfold": 7993,
      "Ġguests": 7994,
      "Ġshook": 7995,
      "Ġaltar": 7996,
      "Ġembargos": 7997,
      "Ġimmortal": 7998,
      "ĠWilliam": 7999,
      "Ġhung": 8000,
      "Ġhungry": 8001,
      "Ġrecompen": 8002,
      "Ġconjure": 8003,
      "Ġjuramento": 8004,
      "Ġseminaristas": 8005,
      "Ġmonths": 8006,
      "Ġextremity": 8007,
      "Ġbirds": 8008,
      "ravess": 8009,
      "Ġmelancol": 8010,
      "Ġaffords": 8011,
      "Ġcovert": 8012,
      "Ġensin": 8013,
      "Ġprevented": 8014,
      "Ġjoints": 8015,
      "Ġtyrann": 8016,
      "Ġwager": 8017,
      "Ġcensure": 8018,
      "Ġceremon": 8019,
      "ĠCheguei": 8020,
      "Ġbrincando": 8021,
      "Ġexecuted": 8022,
      "Ġmoment": 8023,
      "Ġmomento": 8024,
      "Ġbands": 8025,
      "Ġbolso": 8026,
      "Ġstatue": 8027,
      "ĠCalib": 8028,
      "ĠOutros": 8029,
      "Ġtroops": 8030,
      "Ġpolitica": 8031,
      "Ġbispo": 8032,
      "Ġposter": 8033,
      "Ġweapon": 8034,
      "Ġsteps": 8035,
      "Ġthreatening": 8036,
      "Ġwolf": 8037,
      "ĠpÃ³dem": 8038,
      "Ġpontas": 8039,
      "ARCHIDAM": 8040,
      "ĠElbow": 8041,
      "ĠRealmente": 8042,
      "ĠprÃ©gÃ£o": 8043,
      "Ġadministrador": 8044,
      "criptura": 8045,
      "Ġtapster": 8046,
      "urrey": 8047,
      "Ġmanifest": 8048,
      "ĠdifferenÃ§a": 8049,
      "Ġredeem": 8050,
      "Ġjewel": 8051,
      "Ġdispersed": 8052,
      "Ġruthless": 8053,
      "ĠBerkeley": 8054,
      "Ġpernicious": 8055,
      "Ġclamour": 8056,
      "Strike": 8057,
      "Ġopposite": 8058,
      "Ġcherish": 8059,
      "Ġloteria": 8060,
      "Ġmeddle": 8061,
      "Ġrejoice": 8062,
      "Ġstretch": 8063,
      "Ġspleen": 8064,
      "Ġcharacter": 8065,
      "Ġphotographia": 8066,
      "Ġprettiest": 8067,
      "Petruchio": 8068,
      "Ġzeal": 8069,
      "Ġdono": 8070,
      "Ġlikeness": 8071,
      "Ġwarriors": 8072,
      "Ġchallenge": 8073,
      "Ġcoronation": 8074,
      "ĠEscola": 8075,
      "Ġcommonwealth": 8076,
      "Ġsepulchre": 8077,
      "ĠalvoroÃ§o": 8078,
      "BARNARDINE": 8079,
      "RUTLAND": 8080,
      "Ġnuptial": 8081,
      "Ġgiddy": 8082,
      "ĠOfficer": 8083,
      "ĠLaurence": 8084,
      "Ġpeevish": 8085,
      "ĠWiltshire": 8086,
      "ARCHIDAMUS": 8087,
      "Aw": 8088,
      "App": 8089,
      "ATER": 8090,
      "Add": 8091,
      "Bre": 8092,
      "Bra": 8093,
      "Bem": 8094,
      "BAN": 8095,
      "Ch": 8096,
      "Che": 8097,
      "CRO": 8098,
      "Ever": 8099,
      "Else": 8100,
      "EPH": 8101,
      "Fiquei": 8102,
      "Full": 8103,
      "Ga": 8104,
      "Gard": 8105,
      "Gentleman": 8106,
      "Hic": 8107,
      "Henry": 8108,
      "Hortensio": 8109,
      "IR": 8110,
      "Live": 8111,
      "Mis": 8112,
      "Mur": 8113,
      "MOR": 8114,
      "Morreu": 8115,
      "Name": 8116,
      "Old": 8117,
      "Padre": 8118,
      "Patience": 8119,
      "Parece": 8120,
      "Persu": 8121,
      "Rel": 8122,
      "Sin": 8123,
      "Sen": 8124,
      "Sus": 8125,
      "Send": 8126,
      "Six": 8127,
      "Saw": 8128,
      "SIR": 8129,
      "Te": 8130,
      "TON": 8131,
      "Toward": 8132,
      "TMOR": 8133,
      "Volt": 8134,
      "Virt": 8135,
      "Wr": 8136,
      "Wor": 8137,
      "Wit": 8138,
      "WES": 8139,
      "Women": 8140,
      "Woe": 8141,
      "WATER": 8142,
      "Yield": 8143,
      "ZWATER": 8144,
      "acto": 8145,
      "bri": 8146,
      "bell": 8147,
      "bble": 8148,
      "back": 8149,
      "brar": 8150,
      "cra": 8151,
      "col": 8152,
      "cond": 8153,
      "capit": 8154,
      "creat": 8155,
      "cada": 8156,
      "cima": 8157,
      "dis": 8158,
      "dess": 8159,
      "eis": 8160,
      "eiro": 8161,
      "eys": 8162,
      "fam": 8163,
      "fac": 8164,
      "got": 8165,
      "gia": 8166,
      "gada": 8167,
      "gred": 8168,
      "gged": 8169,
      "ju": 8170,
      "jou": 8171,
      "lu": 8172,
      "light": 8173,
      "liv": 8174,
      "mers": 8175,
      "mitt": 8176,
      "nel": 8177,
      "oon": 8178,
      "ook": 8179,
      "obed": 8180,
      "pray": 8181,
      "pressa": 8182,
      "pothe": 8183,
      "palav": 8184,
      "sen": 8185,
      "sal": 8186,
      "sus": 8187,
      "tr": 8188,
      "tard": 8189,
      "tles": 8190,
      "todos": 8191
    },
    "merges": [
      [
        "Ġ",
        "t"
      ],
      [
        "Ġ",
        "a"
      ],
      [
        "h",
        "e"
      ],
      [
        "Ġ",
        "s"
      ],
      [
        "Ġ",
        "m"
      ],
      [
        "o",
        "u"
      ],
      [
        "i",
        "n"
      ],
      [
        "r",
        "e"
      ],
      [
        "Ġ",
        "d"
      ],
      [
        "h",
        "a"
      ],
      [
        "Ġ",
        "w"
      ],
      [
        "n",
        "d"
      ],
      [
        "e",
        "r"
      ],
      [
        "o",
        "r"
      ],
      [
        "i",
        "s"
      ],
      [
        "Ġ",
        "c"
      ],
      [
        "Ġ",
        "b"
      ],
      [
        "č",
        "Ċ"
      ],
      [
        "Ġt",
        "he"
      ],
      [
        "e",
        "s"
      ],
      [
        "Ġ",
        "p"
      ],
      [
        "Ġ",
        "o"
      ],
      [
        "Ġ",
        "f"
      ],
      [
        "Ġ",
        "n"
      ],
      [
        "a",
        "r"
      ],
      [
        "e",
        "n"
      ],
      [
        "l",
        "l"
      ],
      [
        "i",
        "t"
      ],
      [
        "Ġ",
        "l"
      ],
      [
        "a",
        "s"
      ],
      [
        "o",
        "n"
      ],
      [
        "Ġ",
        "e"
      ],
      [
        "o",
        "m"
      ],
      [
        "o",
        "s"
      ],
      [
        "Ġ",
        "y"
      ],
      [
        "Ġ",
        "h"
      ],
      [
        "Ġt",
        "h"
      ],
      [
        "a",
        "n"
      ],
      [
        "Ġt",
        "o"
      ],
      [
        "v",
        "e"
      ],
      [
        "q",
        "u"
      ],
      [
        "Ġy",
        "ou"
      ],
      [
        "ha",
        "t"
      ],
      [
        "Ġ",
        "I"
      ],
      [
        "o",
        "t"
      ],
      [
        "Ġ",
        "he"
      ],
      [
        "Ġ",
        "g"
      ],
      [
        "a",
        "t"
      ],
      [
        "Ġd",
        "e"
      ],
      [
        "Ġa",
        "nd"
      ],
      [
        "in",
        "g"
      ],
      [
        "o",
        "w"
      ],
      [
        "Ġo",
        "f"
      ],
      [
        "r",
        "a"
      ],
      [
        "s",
        "e"
      ],
      [
        "i",
        "m"
      ],
      [
        "Ġ",
        "qu"
      ],
      [
        "Ġb",
        "e"
      ],
      [
        "Ġm",
        "e"
      ],
      [
        "a",
        "d"
      ],
      [
        "Ã",
        "£"
      ],
      [
        "c",
        "e"
      ],
      [
        "i",
        "r"
      ],
      [
        "Ġ",
        "in"
      ],
      [
        "Ġ",
        "u"
      ],
      [
        "en",
        "t"
      ],
      [
        "Ġ",
        "ha"
      ],
      [
        "l",
        "e"
      ],
      [
        "Ġm",
        "y"
      ],
      [
        "Ã£",
        "o"
      ],
      [
        "s",
        "t"
      ],
      [
        "Ġqu",
        "e"
      ],
      [
        "e",
        "d"
      ],
      [
        "a",
        "l"
      ],
      [
        "e",
        "t"
      ],
      [
        "u",
        "t"
      ],
      [
        "i",
        "d"
      ],
      [
        "a",
        "m"
      ],
      [
        "l",
        "d"
      ],
      [
        "i",
        "c"
      ],
      [
        "a",
        "y"
      ],
      [
        "Ġ",
        "Ġ"
      ],
      [
        "Ġ",
        "v"
      ],
      [
        "Ġs",
        "e"
      ],
      [
        "it",
        "h"
      ],
      [
        "Ġ",
        "is"
      ],
      [
        "Ġn",
        "ot"
      ],
      [
        "'",
        "s"
      ],
      [
        "Ġc",
        "om"
      ],
      [
        "Ġ",
        "re"
      ],
      [
        "i",
        "g"
      ],
      [
        "Ġf",
        "or"
      ],
      [
        "Ġt",
        "hat"
      ],
      [
        "A",
        "nd"
      ],
      [
        "i",
        "a"
      ],
      [
        "o",
        "d"
      ],
      [
        "k",
        "e"
      ],
      [
        "es",
        "t"
      ],
      [
        "Ġa",
        "s"
      ],
      [
        "Ġw",
        "e"
      ],
      [
        "ou",
        "r"
      ],
      [
        "i",
        "ll"
      ],
      [
        "r",
        "o"
      ],
      [
        "he",
        "r"
      ],
      [
        "e",
        "m"
      ],
      [
        "Ġw",
        "ith"
      ],
      [
        "Ġ",
        "it"
      ],
      [
        "Ġyou",
        "r"
      ],
      [
        "u",
        "r"
      ],
      [
        "Ġd",
        "o"
      ],
      [
        "Ġth",
        "ou"
      ],
      [
        "a",
        "nd"
      ],
      [
        "Ġs",
        "t"
      ],
      [
        "or",
        "d"
      ],
      [
        "'",
        "d"
      ],
      [
        "c",
        "h"
      ],
      [
        "Ġ",
        "k"
      ],
      [
        "Ġh",
        "is"
      ],
      [
        "a",
        "v"
      ],
      [
        "t",
        "er"
      ],
      [
        "E",
        "N"
      ],
      [
        "u",
        "s"
      ],
      [
        "T",
        "he"
      ],
      [
        "Ġs",
        "o"
      ],
      [
        "Ġha",
        "ve"
      ],
      [
        "Ġn",
        "o"
      ],
      [
        "I",
        "N"
      ],
      [
        "Ã",
        "§"
      ],
      [
        "r",
        "i"
      ],
      [
        "l",
        "y"
      ],
      [
        "Ġ",
        "C"
      ],
      [
        "Ġh",
        "im"
      ],
      [
        "-",
        "-"
      ],
      [
        "Ġl",
        "i"
      ],
      [
        "es",
        "s"
      ],
      [
        "Ġth",
        "is"
      ],
      [
        "I",
        "O"
      ],
      [
        "o",
        "re"
      ],
      [
        "h",
        "t"
      ],
      [
        "Ġo",
        "n"
      ],
      [
        "Ġn",
        "Ã£o"
      ],
      [
        "A",
        "R"
      ],
      [
        "an",
        "t"
      ],
      [
        "Ġ",
        "E"
      ],
      [
        "i",
        "l"
      ],
      [
        "Ã",
        "©"
      ],
      [
        "p",
        "e"
      ],
      [
        "Ġc",
        "on"
      ],
      [
        "ou",
        "ld"
      ],
      [
        "o",
        "od"
      ],
      [
        "om",
        "e"
      ],
      [
        "a",
        "in"
      ],
      [
        "e",
        "ll"
      ],
      [
        "v",
        "er"
      ],
      [
        "Ġa",
        "n"
      ],
      [
        "Ġu",
        "m"
      ],
      [
        "o",
        "l"
      ],
      [
        "Ġ",
        "ou"
      ],
      [
        "u",
        "l"
      ],
      [
        "Ġs",
        "u"
      ],
      [
        "m",
        "e"
      ],
      [
        "Ġth",
        "y"
      ],
      [
        "Ġs",
        "ha"
      ],
      [
        "Ġm",
        "a"
      ],
      [
        "r",
        "u"
      ],
      [
        "Ġw",
        "ill"
      ],
      [
        "Ġl",
        "o"
      ],
      [
        "i",
        "f"
      ],
      [
        "Ã",
        "¡"
      ],
      [
        "g",
        "e"
      ],
      [
        "os",
        "t"
      ],
      [
        "ĠĠ",
        "ĠĠ"
      ],
      [
        "g",
        "u"
      ],
      [
        "i",
        "o"
      ],
      [
        "Ġw",
        "h"
      ],
      [
        "Ġb",
        "ut"
      ],
      [
        "Ġp",
        "ar"
      ],
      [
        "Ġa",
        "ll"
      ],
      [
        "U",
        "S"
      ],
      [
        "ig",
        "ht"
      ],
      [
        "Ġd",
        "a"
      ],
      [
        "a",
        "p"
      ],
      [
        "T",
        "h"
      ],
      [
        "n",
        "t"
      ],
      [
        "ou",
        "s"
      ],
      [
        "T",
        "o"
      ],
      [
        "Ġm",
        "u"
      ],
      [
        "Ġf",
        "a"
      ],
      [
        "W",
        "h"
      ],
      [
        "i",
        "on"
      ],
      [
        "t",
        "h"
      ],
      [
        "Ġhe",
        "r"
      ],
      [
        "re",
        "s"
      ],
      [
        "r",
        "om"
      ],
      [
        "ar",
        "d"
      ],
      [
        "Ġn",
        "e"
      ],
      [
        "ha",
        "n"
      ],
      [
        "Ġ",
        "A"
      ],
      [
        "Ġa",
        "t"
      ],
      [
        "Ġa",
        "m"
      ],
      [
        "Ġm",
        "in"
      ],
      [
        "c",
        "t"
      ],
      [
        "Ġ",
        "our"
      ],
      [
        "Ġthe",
        "e"
      ],
      [
        "Ġ",
        "M"
      ],
      [
        "Ġsha",
        "ll"
      ],
      [
        "Ġb",
        "y"
      ],
      [
        "e",
        "l"
      ],
      [
        "Ġ",
        "R"
      ],
      [
        "c",
        "k"
      ],
      [
        "a",
        "b"
      ],
      [
        "U",
        "C"
      ],
      [
        ".",
        "."
      ],
      [
        "Ġa",
        "re"
      ],
      [
        "IN",
        "G"
      ],
      [
        "Ġs",
        "h"
      ],
      [
        "Ġ",
        "S"
      ],
      [
        "Ġp",
        "r"
      ],
      [
        "Ġk",
        "n"
      ],
      [
        "e",
        "ar"
      ],
      [
        "Ġ",
        "j"
      ],
      [
        "as",
        "t"
      ],
      [
        "a",
        "re"
      ],
      [
        "T",
        "hat"
      ],
      [
        "e",
        "nd"
      ],
      [
        "ic",
        "h"
      ],
      [
        "Ġa",
        "l"
      ],
      [
        "E",
        "R"
      ],
      [
        "O",
        "R"
      ],
      [
        "Ġ",
        "O"
      ],
      [
        "Ġw",
        "hat"
      ],
      [
        "Ġd",
        "is"
      ],
      [
        "d",
        "e"
      ],
      [
        "Ġ",
        "r"
      ],
      [
        "av",
        "a"
      ],
      [
        "Ġm",
        "an"
      ],
      [
        "ad",
        "e"
      ],
      [
        "Ġ",
        "Ã©"
      ],
      [
        "Ġou",
        "t"
      ],
      [
        "se",
        "l"
      ],
      [
        "A",
        "N"
      ],
      [
        "E",
        "T"
      ],
      [
        "Ġ",
        "'"
      ],
      [
        "E",
        "S"
      ],
      [
        "i",
        "ve"
      ],
      [
        "Ġu",
        "p"
      ],
      [
        "i",
        "z"
      ],
      [
        "at",
        "h"
      ],
      [
        "in",
        "d"
      ],
      [
        "B",
        "ut"
      ],
      [
        "a",
        "k"
      ],
      [
        "Ġm",
        "as"
      ],
      [
        "Ġg",
        "ood"
      ],
      [
        "or",
        "t"
      ],
      [
        "f",
        "e"
      ],
      [
        "u",
        "m"
      ],
      [
        "Ġ",
        "G"
      ],
      [
        "r",
        "ow"
      ],
      [
        "Ġ",
        "P"
      ],
      [
        "er",
        "a"
      ],
      [
        "Ġl",
        "ord"
      ],
      [
        "i",
        "e"
      ],
      [
        "Ġo",
        "s"
      ],
      [
        "on",
        "e"
      ],
      [
        "'",
        "ll"
      ],
      [
        "Ġe",
        "m"
      ],
      [
        "W",
        "hat"
      ],
      [
        "Ġw",
        "he"
      ],
      [
        "Ġ",
        "L"
      ],
      [
        "K",
        "ING"
      ],
      [
        "o",
        "nd"
      ],
      [
        "g",
        "h"
      ],
      [
        "Ġ",
        "D"
      ],
      [
        "t",
        "o"
      ],
      [
        "Ġs",
        "a"
      ],
      [
        "Ġl",
        "e"
      ],
      [
        "r",
        "y"
      ],
      [
        "h",
        "o"
      ],
      [
        "Ġhe",
        "ar"
      ],
      [
        "Ġa",
        "r"
      ],
      [
        "Ġ",
        "est"
      ],
      [
        "Ġb",
        "l"
      ],
      [
        "Ġf",
        "rom"
      ],
      [
        "Ġb",
        "r"
      ],
      [
        "Ġ",
        "B"
      ],
      [
        "Ġ",
        "H"
      ],
      [
        "Ġs",
        "he"
      ],
      [
        "Ġ",
        "V"
      ],
      [
        "ent",
        "e"
      ],
      [
        "F",
        "or"
      ],
      [
        "Ġa",
        "g"
      ],
      [
        "Ġm",
        "ore"
      ],
      [
        "I",
        "C"
      ],
      [
        "Ġa",
        "c"
      ],
      [
        "Ã§",
        "Ã£o"
      ],
      [
        "Ġd",
        "es"
      ],
      [
        "Ġc",
        "an"
      ],
      [
        "c",
        "i"
      ],
      [
        "Ġw",
        "as"
      ],
      [
        "Ġthe",
        "m"
      ],
      [
        "ot",
        "h"
      ],
      [
        "Ġf",
        "o"
      ],
      [
        "ot",
        "her"
      ],
      [
        "Ġs",
        "ir"
      ],
      [
        "os",
        "e"
      ],
      [
        "Ġpar",
        "a"
      ],
      [
        "u",
        "d"
      ],
      [
        "Ġg",
        "ra"
      ],
      [
        "Ġp",
        "er"
      ],
      [
        "e",
        "p"
      ],
      [
        "Ġn",
        "ow"
      ],
      [
        "and",
        "o"
      ],
      [
        "Ġ",
        "hat"
      ],
      [
        "Ġ",
        "or"
      ],
      [
        "Ġ",
        "if"
      ],
      [
        "L",
        "O"
      ],
      [
        "Ġu",
        "n"
      ],
      [
        "Ġthe",
        "re"
      ],
      [
        "Ġp",
        "ro"
      ],
      [
        "Ġw",
        "ould"
      ],
      [
        "Ġkn",
        "ow"
      ],
      [
        "at",
        "e"
      ],
      [
        "u",
        "n"
      ],
      [
        "I",
        "US"
      ],
      [
        "a",
        "ll"
      ],
      [
        "sel",
        "f"
      ],
      [
        "AR",
        "D"
      ],
      [
        "at",
        "her"
      ],
      [
        "Ġs",
        "ay"
      ],
      [
        "Ġu",
        "s"
      ],
      [
        "e",
        "i"
      ],
      [
        "Ġhe",
        "re"
      ],
      [
        "Ġlo",
        "ve"
      ],
      [
        "o",
        "k"
      ],
      [
        "Ġs",
        "w"
      ],
      [
        "Ġthe",
        "ir"
      ],
      [
        "p",
        "p"
      ],
      [
        "Ġ",
        "en"
      ],
      [
        "Ġe",
        "x"
      ],
      [
        "i",
        "v"
      ],
      [
        "Ġ",
        "es"
      ],
      [
        "Ġt",
        "han"
      ],
      [
        "Ġl",
        "et"
      ],
      [
        "Ġthe",
        "n"
      ],
      [
        "Ġe",
        "ll"
      ],
      [
        "Ġk",
        "ing"
      ],
      [
        "Ġe",
        "u"
      ],
      [
        "Ġ",
        "era"
      ],
      [
        "Ġg",
        "o"
      ],
      [
        "u",
        "re"
      ],
      [
        "Ġthe",
        "y"
      ],
      [
        "ad",
        "o"
      ],
      [
        "a",
        "ve"
      ],
      [
        "a",
        "ke"
      ],
      [
        "M",
        "y"
      ],
      [
        "Ġcom",
        "e"
      ],
      [
        "on",
        "g"
      ],
      [
        "H",
        "e"
      ],
      [
        "is",
        "t"
      ],
      [
        "b",
        "le"
      ],
      [
        "Ġ",
        "N"
      ],
      [
        "Ã",
        "³"
      ],
      [
        "ap",
        "it"
      ],
      [
        "Ġs",
        "er"
      ],
      [
        "Ġp",
        "or"
      ],
      [
        "A",
        "s"
      ],
      [
        "Ġs",
        "pe"
      ],
      [
        "L",
        "I"
      ],
      [
        "Ġw",
        "or"
      ],
      [
        "er",
        "s"
      ],
      [
        "im",
        "e"
      ],
      [
        "os",
        "s"
      ],
      [
        "Ġ",
        "ent"
      ],
      [
        "in",
        "k"
      ],
      [
        "am",
        "e"
      ],
      [
        "f",
        "ore"
      ],
      [
        "Ġm",
        "ay"
      ],
      [
        "W",
        "he"
      ],
      [
        "p",
        "o"
      ],
      [
        "Ġp",
        "e"
      ],
      [
        "Ġwe",
        "ll"
      ],
      [
        "K",
        "E"
      ],
      [
        "Ġ",
        "ve"
      ],
      [
        "re",
        "at"
      ],
      [
        "Ġon",
        "e"
      ],
      [
        "Ġhat",
        "h"
      ],
      [
        "Ġ",
        "J"
      ],
      [
        "ir",
        "st"
      ],
      [
        "a",
        "g"
      ],
      [
        "Ġum",
        "a"
      ],
      [
        "Ġ",
        "T"
      ],
      [
        "Ġh",
        "o"
      ],
      [
        "Ġcon",
        "t"
      ],
      [
        "Y",
        "ou"
      ],
      [
        "Ġma",
        "ke"
      ],
      [
        "c",
        "o"
      ],
      [
        "u",
        "st"
      ],
      [
        "Ġa",
        "b"
      ],
      [
        "Ġmu",
        "st"
      ],
      [
        "ou",
        "nd"
      ],
      [
        "l",
        "a"
      ],
      [
        "e",
        "c"
      ],
      [
        "Ã",
        "º"
      ],
      [
        "p",
        "er"
      ],
      [
        "is",
        "h"
      ],
      [
        "Ġv",
        "er"
      ],
      [
        "Ġwe",
        "re"
      ],
      [
        "apit",
        "Ãº"
      ],
      [
        "Ġse",
        "e"
      ],
      [
        "id",
        "e"
      ],
      [
        "Ġli",
        "ke"
      ],
      [
        "en",
        "s"
      ],
      [
        "T",
        "IO"
      ],
      [
        "it",
        "y"
      ],
      [
        "Ġsh",
        "ould"
      ],
      [
        "i",
        "re"
      ],
      [
        "or",
        "a"
      ],
      [
        "in",
        "e"
      ],
      [
        "Ġn",
        "a"
      ],
      [
        "R",
        "O"
      ],
      [
        "i",
        "ce"
      ],
      [
        "Ġm",
        "ar"
      ],
      [
        "ha",
        "r"
      ],
      [
        "n",
        "g"
      ],
      [
        "Ġf",
        "ather"
      ],
      [
        "m",
        "an"
      ],
      [
        "or",
        "n"
      ],
      [
        "as",
        "s"
      ],
      [
        "Ġha",
        "d"
      ],
      [
        "ic",
        "k"
      ],
      [
        "Ġd",
        "id"
      ],
      [
        "in",
        "ha"
      ],
      [
        "qu",
        "e"
      ],
      [
        "..",
        "."
      ],
      [
        "Ġup",
        "on"
      ],
      [
        "Ġ",
        "Ã¡"
      ],
      [
        "r",
        "an"
      ],
      [
        "o",
        "c"
      ],
      [
        "en",
        "ce"
      ],
      [
        "m",
        "a"
      ],
      [
        "Ġp",
        "re"
      ],
      [
        "O",
        "N"
      ],
      [
        "Ġc",
        "h"
      ],
      [
        "Ġmin",
        "ha"
      ],
      [
        "i",
        "as"
      ],
      [
        "v",
        "es"
      ],
      [
        "ad",
        "a"
      ],
      [
        "ig",
        "n"
      ],
      [
        "Ġma",
        "is"
      ],
      [
        "Ġs",
        "on"
      ],
      [
        "g",
        "ht"
      ],
      [
        "Ġs",
        "p"
      ],
      [
        "w",
        "ard"
      ],
      [
        "it",
        "o"
      ],
      [
        "Ġa",
        "o"
      ],
      [
        "Ġde",
        "ath"
      ],
      [
        "Ã§",
        "a"
      ],
      [
        "Ġf",
        "e"
      ],
      [
        "Ġp",
        "o"
      ],
      [
        "ow",
        "n"
      ],
      [
        "ĠĠĠĠ",
        "ĠĠĠĠ"
      ],
      [
        "I",
        "I"
      ],
      [
        "Ġc",
        "as"
      ],
      [
        "Ġcom",
        "o"
      ],
      [
        "I",
        "S"
      ],
      [
        "f",
        "ul"
      ],
      [
        "n",
        "ce"
      ],
      [
        "Ġspe",
        "ak"
      ],
      [
        "ent",
        "le"
      ],
      [
        "Ġwh",
        "ich"
      ],
      [
        "IC",
        "H"
      ],
      [
        "A",
        "U"
      ],
      [
        "O",
        "L"
      ],
      [
        "v",
        "en"
      ],
      [
        "D",
        "U"
      ],
      [
        "Ġ",
        "im"
      ],
      [
        "Ġt",
        "ru"
      ],
      [
        "Ġag",
        "ain"
      ],
      [
        "DU",
        "KE"
      ],
      [
        "i",
        "es"
      ],
      [
        "Ġh",
        "ow"
      ],
      [
        "E",
        "L"
      ],
      [
        "Ġf",
        "ri"
      ],
      [
        "Ġh",
        "on"
      ],
      [
        "Ã£",
        "e"
      ],
      [
        "l",
        "he"
      ],
      [
        "Ġto",
        "o"
      ],
      [
        "ra",
        "y"
      ],
      [
        "Ġhear",
        "t"
      ],
      [
        "l",
        "h"
      ],
      [
        "Ġof",
        "f"
      ],
      [
        "C",
        "A"
      ],
      [
        "W",
        "e"
      ],
      [
        "Ġy",
        "et"
      ],
      [
        "Ġha",
        "nd"
      ],
      [
        "Th",
        "ou"
      ],
      [
        "W",
        "ith"
      ],
      [
        "ĠC",
        "apitÃº"
      ],
      [
        "ICH",
        "ARD"
      ],
      [
        "EN",
        "TIO"
      ],
      [
        "a",
        "u"
      ],
      [
        "Ġs",
        "ome"
      ],
      [
        "Wh",
        "ich"
      ],
      [
        "p",
        "t"
      ],
      [
        "I",
        "f"
      ],
      [
        "Ġwhe",
        "n"
      ],
      [
        "I",
        "n"
      ],
      [
        "i",
        "x"
      ],
      [
        "Ġb",
        "o"
      ],
      [
        "Ġf",
        "al"
      ],
      [
        "u",
        "ra"
      ],
      [
        "Ġm",
        "en"
      ],
      [
        "in",
        "ce"
      ],
      [
        "on",
        "t"
      ],
      [
        "Ġmin",
        "e"
      ],
      [
        "Ġse",
        "m"
      ],
      [
        "IN",
        "C"
      ],
      [
        "Ġ",
        "Y"
      ],
      [
        "ou",
        "t"
      ],
      [
        "'",
        "t"
      ],
      [
        "Ġa",
        "d"
      ],
      [
        "Ġa",
        "f"
      ],
      [
        "Wh",
        "y"
      ],
      [
        "p",
        "l"
      ],
      [
        "Ġ",
        "F"
      ],
      [
        "w",
        "n"
      ],
      [
        "Ġ",
        "ro"
      ],
      [
        "N",
        "o"
      ],
      [
        "Ġ",
        "W"
      ],
      [
        "Ġt",
        "ime"
      ],
      [
        "n",
        "ess"
      ],
      [
        "Ġt",
        "em"
      ],
      [
        "A",
        "B"
      ],
      [
        "Ġsu",
        "ch"
      ],
      [
        "Ġcom",
        "m"
      ],
      [
        "Ġpar",
        "t"
      ],
      [
        "F",
        "irst"
      ],
      [
        "L",
        "A"
      ],
      [
        "o",
        "p"
      ],
      [
        "Ġbr",
        "other"
      ],
      [
        "O",
        "f"
      ],
      [
        "is",
        "s"
      ],
      [
        "Ġhe",
        "av"
      ],
      [
        "Ġbl",
        "ood"
      ],
      [
        "it",
        "her"
      ],
      [
        "res",
        "s"
      ],
      [
        "U",
        "E"
      ],
      [
        "t",
        "her"
      ],
      [
        "is",
        "e"
      ],
      [
        "Ġthe",
        "se"
      ],
      [
        "Ġp",
        "a"
      ],
      [
        "m",
        "ent"
      ],
      [
        "Ġm",
        "ost"
      ],
      [
        "Ġg",
        "ive"
      ],
      [
        "Ġre",
        "s"
      ],
      [
        "c",
        "a"
      ],
      [
        "i",
        "le"
      ],
      [
        "id",
        "o"
      ],
      [
        "Ġp",
        "l"
      ],
      [
        "Q",
        "u"
      ],
      [
        "Ġd",
        "ay"
      ],
      [
        "Ġe",
        "ar"
      ],
      [
        "ĠR",
        "ICHARD"
      ],
      [
        "T",
        "ER"
      ],
      [
        "am",
        "b"
      ],
      [
        "Ġli",
        "fe"
      ],
      [
        "Th",
        "is"
      ],
      [
        "S",
        "o"
      ],
      [
        "d",
        "o"
      ],
      [
        "Ġt",
        "ell"
      ],
      [
        "Ġth",
        "ink"
      ],
      [
        "Ġlo",
        "ok"
      ],
      [
        "UC",
        "H"
      ],
      [
        "Ġ",
        "ru"
      ],
      [
        "ou",
        "l"
      ],
      [
        "in",
        "t"
      ],
      [
        "Ġw",
        "ord"
      ],
      [
        "Ġe",
        "y"
      ],
      [
        "Ġe",
        "ver"
      ],
      [
        "Ġwhe",
        "re"
      ],
      [
        "i",
        "u"
      ],
      [
        "Ġ",
        "ra"
      ],
      [
        "Ġd",
        "u"
      ],
      [
        "Ġf",
        "l"
      ],
      [
        "gu",
        "e"
      ],
      [
        "G",
        "LO"
      ],
      [
        "b",
        "er"
      ],
      [
        "Ġt",
        "ake"
      ],
      [
        "UC",
        "ES"
      ],
      [
        "Ġfri",
        "end"
      ],
      [
        "GLO",
        "UCES"
      ],
      [
        "GLOUCES",
        "TER"
      ],
      [
        "n",
        "ot"
      ],
      [
        "Ġar",
        "t"
      ],
      [
        "Ġm",
        "o"
      ],
      [
        "ad",
        "y"
      ],
      [
        "Ġas",
        "s"
      ],
      [
        "row",
        "n"
      ],
      [
        "m",
        "o"
      ],
      [
        "Ġl",
        "he"
      ],
      [
        "ing",
        "s"
      ],
      [
        ",",
        "--"
      ],
      [
        "e",
        "et"
      ],
      [
        "l",
        "o"
      ],
      [
        "Ġg",
        "entle"
      ],
      [
        "ur",
        "se"
      ],
      [
        "i",
[...]
